[PAD]
[UNK]
[CLS]
[SEP]
[MASK]
[unused0]
[unused1]
[unused2]
[unused3]
[unused4]
[unused5]
[unused6]
[unused7]
[unused8]
[unused9]
[unused10]
[unused11]
[unused12]
[unused13]
[unused14]
[unused15]
[unused16]
[unused17]
[unused18]
[unused19]
[unused20]
[unused21]
[unused22]
[unused23]
[unused24]
[unused25]
[unused26]
[unused27]
[unused28]
[unused29]
[unused30]
[unused31]
[unused32]
[unused33]
[unused34]
[unused35]
[unused36]
[unused37]
[unused38]
[unused39]
[unused40]
[unused41]
[unused42]
[unused43]
[unused44]
[unused45]
[unused46]
[unused47]
[unused48]
[unused49]
[unused50]
[unused51]
[unused52]
[unused53]
[unused54]
[unused55]
[unused56]
[unused57]
[unused58]
[unused59]
[unused60]
[unused61]
[unused62]
[unused63]
[unused64]
[unused65]
[unused66]
[unused67]
[unused68]
[unused69]
[unused70]
[unused71]
[unused72]
[unused73]
[unused74]
[unused75]
[unused76]
[unused77]
[unused78]
[unused79]
[unused80]
[unused81]
[unused82]
[unused83]
[unused84]
[unused85]
[unused86]
[unused87]
[unused88]
[unused89]
[unused90]
[unused91]
[unused92]
[unused93]
[unused94]
[unused95]
[unused96]
[unused97]
[unused98]
[unused99]
!
"
#
$
%
&
'
(
)
*
+
,
-
.
/
0
1
2
3
4
5
6
7
8
9
:
;
<
=
>
?
@
A
B
C
D
E
F
G
H
I
J
K
L
M
N
O
P
Q
R
S
T
U
V
W
X
Y
Z
[
\
]
^
_
`
a
b
c
d
e
f
g
h
i
j
k
l
m
n
o
p
q
r
s
t
u
v
w
x
y
z
{
|
}
~
¡
¢
£
¤
¥
¦
§
¨
©
ª
«
¬
®
¯
°
±
²
³
´
µ
¶
·
¸
¹
º
»
¼
½
¾
¿
À
Á
Â
Ã
Ä
Å
Æ
Ç
È
É
Ê
Ë
Ì
Í
Î
Ð
Ñ
Ò
Ó
Ô
Õ
Ö
×
Ø
Ù
Ú
Û
Ü
Ý
Þ
ß
à
á
â
ã
ä
å
æ
ç
è
é
ê
ë
ì
í
î
ï
ð
ñ
ò
ó
ô
õ
ö
÷
ø
ù
ú
û
ü
ý
þ
ÿ
Ā
ā
Ă
ă
Ą
ą
Ć
ć
ĉ
Č
č
Đ
đ
Ē
ē
ė
ę
ě
ğ
ġ
ħ
ĩ
ī
ĭ
İ
ı
ĸ
ĺ
ļ
Ľ
Ł
ł
ń
ņ
ň
ŋ
Ō
ō
ŏ
ő
Œ
œ
ŕ
ř
Ś
ś
Ş
ş
Š
š
ţ
ũ
Ū
ū
ŭ
ů
ű
ų
ŵ
Ÿ
ź
Ż
ż
Ž
ž
ơ
ǎ
ǔ
ǧ
ǫ
ȁ
ș
ț
ɑ
ɔ
ɖ
ə
ɛ
ɣ
ɪ
ʀ
ʁ
ʃ
ʊ
ʒ
ʲ
ʹ
ʻ
ʼ
ʾ
ʿ
˃
ˆ
ˈ
ˌ
ː
˗
˘
˚
˜
˝
ˮ
̀
́
̂
̃
̄
̊
̶
·
Α
Β
Γ
Δ
Ε
Ζ
Θ
Ι
Κ
Λ
Μ
Ν
Ο
Π
Ρ
Σ
Τ
Φ
Χ
Ω
ά
έ
ή
ί
α
β
γ
δ
ε
ζ
η
θ
ι
κ
λ
μ
ν
ξ
ο
π
ρ
ς
σ
τ
υ
φ
χ
ψ
ω
ϋ
ό
ύ
ώ
Є
А
Б
В
Г
Д
Е
Ж
З
И
К
Л
М
Н
О
П
Р
С
Т
У
Ф
Х
Ц
Ч
Ш
Ю
Я
а
б
в
г
д
е
ж
з
и
й
к
л
м
н
о
п
р
с
т
у
ф
х
ц
ч
ш
щ
ъ
ы
ь
э
ю
я
ё
і
ї
ј
Қ
қ
ң
ә
ա
ն
ո
ր
֧
ְ
ִ
ֵ
ֶ
ַ
ָ
ֹ
ּ
ׁ
ׅ
א
ב
ג
ד
ה
ו
ח
י
כ
ל
ם
מ
ן
נ
ס
ע
פ
צ
ק
ר
ש
ת
ء
آ
أ
إ
ئ
ا
ب
ة
ت
ث
ج
ح
خ
د
ذ
ر
ز
س
ش
ص
ض
ط
ظ
ع
غ
ف
ق
ك
ل
م
ن
ه
و
ى
ي
ً
َ
ُ
ِ
ّ
ْ
پ
ک
گ
ی
ं
क
ग
ण
त
द
न
प
म
य
र
ल
व
स
ा
ि
ी
ु
े
्
র
া
্
க
ச
ட
த
ன
ப
ம
ய
ர
ழ
ி
ு
்
ก
ข
ค
ฆ
ง
จ
ฉ
ช
ญ
ฐ
ณ
ด
ต
ถ
ท
น
บ
ป
ผ
พ
ภ
ม
ย
ร
ล
ว
ส
ห
อ
ะ
ั
า
ำ
ิ
ี
ื
ุ
ู
เ
แ
โ
ใ
ไ
่
้
์
་
ა
ბ
ე
ვ
თ
ი
ლ
მ
ნ
ო
რ
ს
უ
ხ
አ
ᵒ
Ḥ
ḥ
ḱ
ḷ
ḻ
Ṣ
ṣ
ṭ
ẏ
ạ
ả
ễ
ệ
ọ
ỏ
ồ
ứ
ἀ
ἅ
Ἀ
Ἄ
ἰ
ὀ
ὁ
ὒ
ὕ
ὶ
ῆ
ῖ
ῦ
‐
‑
‒
–
—
―
‘
’
‚
‛
“
”
„
‟
†
•
…
‰
′
″
›
‼
⁃
⁄
₂
€
⃣
™
ℵ
⅓
⅔
⅛
↑
→
↓
↔
↩
∅
∆
∈
−
∘
∙
√
∞
≈
≠
≤
≥
⊙
⋅
〈
─
│
■
▪
▫
▶
►
▼
○
◌
●
◦
◾
☀
★
☑
☺
♀
♂
♠
♡
♥
⚒
⚡
⚪
⚫
⚽
✅
✈
✋
✌
✍
✔
✨
❄
❌
❏
❗
❤
➔
➛
➜
➡
➢
⠀
⦁
⭐
あ
い
う
え
か
が
き
く
け
さ
し
ず
た
ち
っ
て
と
な
の
は
ま
め
も
ら
り
る
れ
ん
ア
ィ
イ
ウ
オ
カ
ガ
キ
ク
グ
コ
サ
シ
ジ
ス
ズ
セ
タ
ダ
ッ
ツ
テ
デ
ト
ド
ナ
ニ
バ
パ
フ
ブ
プ
ボ
マ
ム
メ
ャ
ラ
リ
ル
レ
ロ
ン
・
ー
ㅤ
一
三
中
京
人
仮
会
北
南
国
國
地
大
天
太
子
字
家
将
小
川
市
帝
平
戦
文
日
明
朝
木
本
杉
東
松
棋
歌
民
水
治
海
王
皇
社
行
西
道
郎
野
音
ﬁ
ﬂ
﷽
️
，
Ｍ
Ｓ
￼
🇦
🇧
🇨
🇩
🇪
🇫
🇬
🇭
🇮
🇰
🇱
🇲
🇳
🇴
🇵
🇷
🇸
🇹
🇺
🇽
🇿
🌈
🌍
🌐
🌟
🌴
🌸
🍻
🍾
🎁
🎂
🎄
🎈
🎉
🎤
🎥
🎯
🎶
🏀
🏃
🏅
🏆
🏟
🏴
🏻
🏼
🏽
🏾
🏿
🐐
🐝
🐦
👀
👇
👉
👊
👋
👌
👍
👏
👑
👪
👶
👻
💃
💈
💋
💔
💕
💗
💙
💚
💛
💜
💥
💦
💨
💩
💪
💯
💰
💸
📋
📝
📰
📷
📸
📺
🔝
🔥
🔫
🔴
🔵
🔸
🔹
🗣
🗿
😀
😁
😂
😃
😄
😅
😆
😇
😉
😊
😋
😍
😎
😏
😔
😘
😛
😜
😡
😢
😤
😥
😩
😬
😭
😮
😱
😳
😴
😵
🙂
🙃
🙄
🙈
🙊
🙌
🙏
🚀
🚨
🤔
🤗
🤘
🤙
🤣
🦁
##r
##o
##s
##t
##b
##ö
##n
##d
##u
##m
##a
##á
##i
##í
##k
##e
##l
##p
##ð
##g
##x
##ý
##y
##c
##h
##v
##ú
##ó
##f
##æ
##1
##0
##2
##3
##j
##þ
##ü
##ę
##z
##N
##U
##D
##w
##V
##I
##K
##M
##Y
##A
##G
##E
##R
##Ð
##о
##с
##к
##р
##е
##н
##ь
##5
##6
##Æ
##S
##T
##P
##é
##ż
##H
##O
##8
##F
##7
##4
##q
##9
##´
##X
##C
##B
##Z
##W
##Á
##L
##Í
##É
##ä
##Ã
##J
##ϋ
##ń
##Ó
##Q
##Ú
##Â
##º
##Þ
##à
##ø
##Ö
##°
##œ
##у
##ц
##и
##й
##å
##Ý
##ร
##ก
##ฐ
##τ
##ο
##λ
##ε
##μ
##α
##ῖ
##ς
##ą
##ë
##ï
##ł
##ר
##ת
##ו
##ק
##子
##η
##π
##ι
##χ
##ğ
##č
##ć
##а
##л
##²
##ر
##ش
##م
##ô
##ν
##ω
##φ
##έ
##î
##ś
##ή
##δ
##è
##ě
##ل
##أ
##ض
##õ
##ç
##Ç
##ş
##ρ
##γ
##ό
##ณ
##đ
##ā
##т
##ź
##ม
##น
##ی
##ñ
##ﬂ
##ê
##э
##м
##³
##Ø
##ά
##κ
##ū
##म
##â
##ō
##ŏ
##ı
##я
##ا
##ه
##ن
##ظ
##ة
##ж
##д
##ί
##松
##š
##ي
##و
##د
##س
##נ
##ן
##θ
##א
##ž
##ш
##ẏ
##ù
##ã
##û
##ē
##ح
##Ü
##ò
##ÿ
##ฆ
##ύ
##ß
##ю
##מ
##ס
##ד
##ы
##Ă
##ң
##з
##в
##і
##ข
##บ
##ว
##ไ
##ป
##ท
##σ
##ب
##ț
##ă
##ש
##ì
##ψ
##Ê
##υ
##ʁ
##ز
##گ
##ː
##ʲ
##Ì
##ถ
##ș
##ő
##ī
##ʿ
##Ä
##ǫ
##ะ
##г
##ə
##将
##棋
##Ś
##Τ
##Γ
##🔥
##ロ
##テ
##ン
##х
##щ
##ك
##ط
##ى
##ř
##ṭ
##½
##ė
##る
##ち
##ん
##ȁ
##б
##Å
##ʼ
##Ą
##ト
##ラ
##ー
##の
##マ
##ĺ
##¼
##Α
##Ρ
##Κ
##Λ
##Ω
##ㅤ
##ё
##ق
##ذ
##ﬁ
##ย
##ت
##ώ
##民
##國
##❤
##️
##平
##ª
##Š
##ζ
##Ľ
##な
##き
##ῆ
##ニ
##ง
##ב
##🙌
##ф
##ع
##ء
##地
##れ
##し
##て
##め
##く
##ら
##っ
##う
##た
##ف
##غ
##ա
##ն
##水
##天
##皇
##Т
##Ч
##У
##Ж
##Д
##Е
##Н
##И
##ל
##י
##ィ
##ア
##ズ
##太
##郎
##ル
##フ
##バ
##大
##ǔ
##€
##ů
##п
##ک
##ئ
##ḱ
##サ
##ブ
##ス
##Р
##В
##Х
##ņ
##ח
##ם
##β
##¾
##ク
##中
##コ
##さ
##リ
##ジ
##ナ
##ウ
##ド
##ッ
##本
##カ
##タ
##ч
##⚽
##🔵
##⚪
##😴
##🎶
##😀
##🔴
##🏃
##☀
##❄
##😅
##😁
##ण
##会
##ˮ
##ص
##რ
##ვ
##ა
##ლ
##ი
##い
##ま
##川
##К
##Ÿ
##อ
##า
##野
##西
##ע
##ň
##ŕ
##ῦ
##ũ
##音
##シ
##朝
##ช
##จ
##三
##ĭ
##خ
##国
##オ
##ャ
##ъ
##治
##ḥ
##Г
##ث
##ɪ
##一
##พ
##け
##🤙
##🏾
##ム
##京
##ำ
##แ
##ล
##ո
##ų
##ʻ
##ค
##Ò
##Û
##צ
##ξ
##Л
##Б
##О
##木
##ด
##ἰ
##⅓
##文
##字
##ễ
##ồ
##え
##セ
##イ
##日
##が
##と
##も
##戦
##ガ
##プ
##А
##ἅ
##仮
##£
##ǎ
##қ
##パ
##り
##ხ
##ე
##უ
##È
##Μ
##Ο
##Ν
##Ι
##Σ
##ţ
##µ
##杉
##ր
##ˈ
##メ
##社
##ج
##ὶ
##Œ
##Ş
##キ
##ỏ
##は
##道
##ә
##র
##Ñ
##東
##Χ
##ŋ
##ใ
##ห
##ო
##თ
##ボ
##כ
##ŭ
##โ
##פ
##ה
##ŵ
##ฉ
##ɛ
##ļ
##ʒ
##か
##Ε
##ल
##ʊ
##ḻ
##ǧ
##ம
##ʃ
##เ
##Ë
##Ō
##あ
##ส
##ű
##ɔ
##海
##त
##क
##ј
##ʹ
##家
##ダ
##歌
##ன
##ர
##க
##ṣ
##グ
##ญ
##ὀ
##🇸
##ạ
##ผ
##მ
##ბ
##南
##ɑ
##🇦
##🇹
##¬
##ɣ
##ħ
##ơ
##न
##小
##レ
##ї
##ず
##王
##إ
##⚫
##帝
##ĉ
##ὒ
##İ
##🏆
##ɖ
##北
##市
##र
##ს
##ต
##М
##ġ
##ツ
##ய
##Ｓ
##À
##ĩ
##ภ
##द
##Đ
##व
##ˆ
##ʾ
##ப
##人
##П
##👏
##©
##🇮
##🏻
##Я
##Ć
##Ф
##デ
##آ
##💪
##😎
##ג
##ĸ
##Ł
##ả
##Ô
##ọ
##ệ
##ნ
##📝
##行
##⅔
##Ż
##Õ
##ˌ
##Î
##ứ
##አ
##明
##پ
##🇪
##🇬
##ʀ
##✌
##ட
##Ц
##З
##Ā
##य
##С
##😋
##🇧
##🇷
##🎥
##ḷ
##ᵒ
##🙏
##ὕ
##👊
##Ž
##Δ
##🎉
##ழ
##®
##Č
##👍
##ἀ
##ὁ
##ச
##🇽
##🇰
##Ē
##Ш
##स
##ar
##in
##an
##ið
##ur
að
##ir
##st
##er
##um
og
##að
##il
##eg
##tt
##un
##am
##inn
##em
er
##en
##ei
##kk
##ing
##af
##al
##ag
sem
##ann
##ss
##yr
##or
st
##and
##ef
þe
til
##jó
fr
##sk
ver
um
##ði
við
##nd
##ri
##na
##ra
##eð
fyr
##ig
##ll
sk
en
##sl
##ál
##nar
##ví
var
##el
##ins
##ða
haf
með
fyrir
##ja
##kki
##ta
##ni
af
##on
##ey
##ti
þess
ekki
##ög
það
##leg
sé
sam
##ver
##la
##ör
##lu
hef
##pp
því
##ður
##ík
##uð
##nn
##ær
##eik
ef
##om
##ld
##re
##já
##li
##andi
sí
##inu
fram
##ug
##is
##eim
##ning
##tta
##ak
sv
##und
##tir
##ik
##end
##enn
hann
hefur
frá
##num
##ðu
##kv
##ald
verið
##au
upp
##et
kom
##lag
##sins
##ðar
##ek
##arf
eru
##egar
ár
##lega
##inni
##est
##ún
seg
##ist
hafa
##ér
##eið
##eng
##áð
##ól
eftir
##jór
þá
all
##ró
þeir
##ang
##ræ
##aður
ger
hafi
##anna
þar
##nu
##ild
sér
##jar
ég
##sson
##gg
##öf
ein
##it
##ast
##aði
##ma
hv
##ór
##ip
##ara
20
mál
##ingar
##æk
##ók
##ng
Það
út
##ótt
##sm
##fir
##ygg
##æm
##nir
for
br
leik
##stu
##étt
hæ
svo
úr
##jö
mik
segir
##var
##eir
##ill
##at
##élag
##ynd
##okk
##álf
##tur
##of
##unum
veg
##sta
##org
þegar
##ans
##ðum
19
eða
eig
tí
##ark
St
##ús
und
sp
yfir
##jör
##ina
þetta
dag
Ég
heim
gr
fl
##átt
nú
##eld
Ísl
vor
inn
##eit
##itt
##erð
hver
##ka
al
##all
ný
sag
##ands
##ju
##ind
##tti
##æði
##jár
##unar
sig
lög
hún
##es
##slu
##ot
##æri
##ram
##efnd
þeim
##ót
##ingu
##ileg
##ök
##jálf
##br
##jóð
##ust
##as
hlu
##afn
##kvæm
okk
##ari
hér
voru
##unni
stað
##dótt
##jórn
##ska
rík
land
##ber
##oð
##dd
lí
Þe
##ol
hjá
lag
##her
eins
##reið
##fi
kr
##æg
vegna
at
##innar
##ein
kv
lið
##æð
##jum
##eild
##óm
verður
þr
tek
##ell
starf
má
allt
mun
vera
ná
##tí
or
sl
##ýr
##leik
Við
##una
##inna
##ón
end
##ólk
fjár
##ín
##jöl
##00
##agn
##tu
þeirra
sagði
ráð
##dóttir
##öld
vel
##ull
Hann
##ok
##tæk
ákv
einn
##vík
##endur
verði
##arg
##jög
tv
lá
undir
þessu
##æti
##yn
##ort
##lý
##ana
##öð
##iður
tíma
lík
of
##emur
ko
##efn
##rif
skip
væri
##anda
##skip
##unnar
##menn
##yl
mill
tak
200
##nað
##uk
##lí
se
##inum
##mál
Sig
##urinn
##bú
##se
##rá
##anns
mynd
##iss
höf
##sam
##sv
fá
##ðan
ví
##rí
hen
##jú
##reg
##rein
leið
##im
##rar
##rum
##eig
Þetta
##sku
ge
Guð
verk
##hver
##epp
hans
mjög
##fram
hug
þau
##tl
geg
áh
##dag
##tal
##lög
##etur
þann
félag
##eyt
##ætt
##eyr
Rey
nokk
sjálf
##rygg
ára
rétt
##önn
##inga
##tan
fólk
hefði
##gja
##kja
an
##sa
sý
öll
##gi
Sam
stjórn
##stak
mark
hald
rey
bú
##rú
##ru
##si
ísl
orð
201
jafn
gó
##if
##öng
tal
Al
##maður
held
skil
##aða
##sp
##lum
fjöl
þó
koma
##lið
##eil
þing
##ofn
##tar
niður
##ráð
far
meir
íslen
fer
##veg
kró
##innu
##pa
##tum
Sk
ríkis
næ
mér
##æða
##fa
##mi
gera
annar
vir
okkur
Þá
##kom
##sf
bar
En
##ingum
full
bæ
##ung
##ank
##sh
##ert
##illi
flu
einnig
taka
þessum
##legt
saman
##önd
menn
##sdóttir
##lýs
vil
mið
öð
fara
##jón
##bl
##ræð
hr
kemur
##óla
##jórnar
auk
##ár
##ott
fór
þur
ljó
Að
bl
bygg
##tið
##efni
##mið
hvort
##herra
lok
##ðir
tel
##ch
##onum
##sti
eitt
áður
minn
##far
verð
##ningar
ley
eng
sjá
##rei
##yld
Íslands
þær
##kvæmt
okkar
gegn
kl
##enda
fé
##öðu
10
##anum
marg
komið
##gt
##unn
vegar
##varp
ald
sínum
##ynn
##jald
Sigur
##aun
##rið
varð
##aup
##leið
árið
Reykja
hlut
##öm
##kur
gert
##stjó
hafði
stór
##nt
enn
##eins
mæ
dóm
þessa
##uðu
Reykjavík
fyrirtæk
Ef
mikið
##rist
verða
mikil
sn
##andar
segja
Jón
undan
##ent
heldur
bara
##eitt
milli
##ögu
hvað
##ila
hl
grein
##ki
##mynd
Þór
gef
##óknar
##orð
##stur
hins
ann
gær
mör
honum
sku
ber
Sv
einhver
sinn
meðal
séu
##kvæmd
##star
bí
##ku
feng
##mann
##mæ
átt
##su
hó
há
þannig
greið
##þing
líf
tók
op
##íu
##ferð
##jál
##lit
sum
hel
forse
þjó
##ut
mann
##kkert
##ilega
##ga
##öl
þessi
stefn
hús
sinni
rek
##hald
stig
samning
##ap
Jó
síða
##ed
##ili
##imm
síðan
Ar
##son
lang
Ev
##orgun
leg
##ölu
##ækk
##lokk
hennar
##orgar
Hún
##róp
fund
##deild
##nig
##mund
slík
endur
##ember
##lut
hægt
##félag
##yrir
##kær
##aðar
án
199
líka
Krist
mín
##ðist
##örn
fyl
##ögn
vik
##tök
geng
lögreg
##örf
ekkert
##bæ
fyrr
Þar
sama
##öll
##júk
##án
deild
##verk
##os
aftur
##rétt
lý
##band
15
hálf
##vað
##lend
framkvæmd
mó
heil
síðu
skor
atv
yr
##hús
##ski
##fið
##av
##anir
##lar
ári
##irk
Nor
geta
Ól
##haf
##auð
áfram
##fest
fimm
##alla
Evróp
þátt
##önnum
hag
sérstak
auð
leng
þjóð
12
ræða
##nast
##arð
##jöld
þarf
milljó
skýr
aðst
tekið
11
ást
annars
##manna
breyt
##erk
##att
aðeins
lé
annað
##ab
síðustu
##eita
sú
##ger
##ningu
ákveð
##sleg
farið
##gr
eiga
íslensk
hvernig
alltaf
dr
ath
##örð
##fer
maður
##us
sá
sína
mót
dæm
##sla
##amál
##ulag
árum
ríkisst
##oll
halda
fors
##hag
##sst
##skyld
##egi
ranns
##onar
orðið
##óð
##jörn
upplýs
18
##ax
samkvæmt
##gang
fyrsta
gang
##jan
##ost
##ota
stjórnar
enda
Bandar
##rey
nem
##ildi
and
not
##ars
##kt
mat
meira
##amenn
##gu
byr
fær
þú
sm
sveit
ákær
frum
##væg
##tíð
getur
tæk
króna
kyn
##ræði
##tak
##ex
Þess
##landi
teng
Ólaf
henni
##ókn
##eppni
Ing
13
utan
öðrum
##gur
nr
gam
gl
gagn
##arinnar
máli
Br
##stjóri
##akk
##trú
Um
30
forseti
##sem
##emm
vit
rú
stefnd
öllum
##gerð
##elli
##bur
##æn
##arl
##og
##ett
Bandarík
kvöld
14
##rík
##út
Guðmund
16
unn
##enna
stund
reg
yrði
bæði
vinna
innan
##þjó
##skur
##aug
##eiri
trygg
síðar
vís
##ingur
mig
##heim
kröf
##ís
##boð
brey
Fram
stofn
raun
viðskip
##jast
erum
##ad
Ein
laga
##rý
Ár
fj
meiri
##ttu
hækk
ung
best
##smenn
get
Er
sæti
ferð
Gr
##ykk
##vit
Með
Þegar
Og
##kum
Íslandi
##ess
nefnd
áhrif
ág
her
flokk
hluta
tón
pró
##nustu
##verð
##starf
aug
Evrópu
##jur
##tek
ým
##úar
##völd
eld
bak
skrif
##kynn
##stöð
eigin
is
##skrá
Hel
##étta
aldrei
##stv
þús
##dóm
samþ
flug
##isk
kost
alla
hátt
##öfn
Jóh
einstak
umræ
##vel
##mar
hana
spur
ma
bank
##ilegt
##éf
17
sjó
set
landi
Gunnar
##ætl
##skóla
##aga
##aðir
##jörg
##byr
##gj
##sn
##él
##naðar
Haf
Af
sumar
##úr
##stöðu
##uðum
alveg
geti
ör
Sp
##ers
##stof
kaup
sett
vinnu
##ic
Þor
##pt
íbú
Bjar
##fis
bók
fjór
##uður
##art
000
mikilvæg
ætl
mí
fékk
Þeir
##ita
skuld
##sý
##efna
átti
eigi
##ft
##vald
##ji
kann
þeirri
morgun
lig
##hvað
tímab
##ul
sagt
æt
hóp
hor
lit
skemm
síðasta
nó
##uga
lau
##he
fæ
móti
fyrst
##ona
##fræð
milljónir
Nú
mánu
svona
##bygg
Alþing
málið
kon
börn
sín
##leika
þótt
##blað
skoð
list
##slið
For
áf
##val
##arnir
eitthvað
stær
##fur
##yni
##yk
##mark
Bandaríkj
##tist
fleiri
##ðast
##sg
mest
leggja
##ráðherra
vinn
ræ
gæ
25
##rig
hand
##vert
Ch
##natt
Val
þessari
fjölskyld
þrið
mis
##spyr
bir
All
##æru
vin
##oss
fyrra
##indi
efni
Íslend
Vest
frek
höfum
öðru
fengið
borg
nokkur
##öngu
þessar
aðal
milljar
tilkynn
þúsund
##sen
hæstv
haft
##atn
krón
##skól
betur
##stri
##ndi
Ísland
sitt
##ningi
##eidd
finn
##ac
gjald
sjúk
oft
frv
byrj
sak
##slum
##yg
hætti
##semi
sérstaklega
##yrirtæk
allir
frétt
##ard
stuð
##mu
##fær
Lands
atvinnu
##borg
stöð
þekk
fal
##urnar
klu
##mála
erlend
##fl
Reykjavíkur
##ssonar
##öðum
##bær
##brig
##ndar
##öndum
gæti
##oða
minni
styr
##men
næstu
stefnanda
lán
##aráð
##gum
Til
##bank
þm
##vitað
Sí
##verandi
##endi
almenn
höfuð
Hér
ákvörð
nor
##úl
sínu
samþykk
##lands
##aleg
þý
gott
##ustur
góð
Eftir
lagt
alls
##ah
##nefnd
##jól
##unin
##vör
##list
##úss
##op
##ley
##ján
Fr
met
klukk
bor
fyrstu
miklu
21
veit
##til
mínú
##ekk
##slit
opin
##vin
##ökk
##endum
##aust
##byrg
lækk
##inda
##dóttur
##æðinu
liðið
veru
nauð
##eist
##samt
##úst
##aðs
##lá
##rím
nær
##þjóð
spil
vör
erf
##æðum
Magn
##hlu
##rir
nema
##arfélag
Ekki
##vart
##tast
198
##smál
lof
##yð
##ögum
##bún
##vik
standa
einu
mögu
Norður
fö
##sum
van
##fell
##tali
næsta
hluti
efna
vald
eð
Her
##þró
##ljó
kos
tveim
Jóhann
muni
mgr
##íf
sann
von
##rún
22
bein
heild
sex
##ömu
hefðu
##tug
in
ásamt
##naði
##land
kveð
##daginn
##einn
þurf
landinu
##spyrnu
bíl
kynn
##aðurinn
frumvarp
finna
##íl
##stæði
lögum
##æp
##allar
vand
##up
heims
landsins
veið
vill
##óp
væru
tveimur
skatt
##greið
tvö
##nnur
fast
##anka
stendur
ljóst
Eng
flest
Mar
##undi
##við
kraf
vilja
lögreglu
##yst
ætla
ljós
##legum
viss
ósk
störf
gerð
krónur
gerði
##ken
leyti
ákvörðun
##smanna
##stjóra
sigur
mörk
##efnu
finnst
þró
láta
heimil
Ber
##astjó
##unda
hugs
fjárm
brot
heyr
##æður
##sb
núna
Bre
Suður
##syn
mánuði
##ling
rúm
opinber
borgar
##ðis
nám
##olt
meg
##tíma
sæ
nátt
##lug
##ssk
skoraði
##fu
trú
##hlut
Stef
##lla
##amanna
sömu
ganga
##flokk
fjármál
##bo
barna
boð
##mör
gegnum
##framt
rá
hljó
##lík
##ferðar
##sóknar
Há
greiða
töl
##yt
##legu
auðvitað
skyld
##élög
Samkvæmt
umhver
##agnar
##yf
##úlí
##irnir
fisk
##di
##ov
kjör
24
##hæð
laun
unnið
upphaf
meðan
tekur
##hæ
félagsins
23
fyrri
##ía
efnahag
##óber
Akur
##opp
varnar
Einar
##för
##borgar
##kun
landslið
Sjálf
##ningur
##undv
öllu
##legur
Kristján
nokkuð
árinu
##raut
samstarf
haldið
##rek
stöðu
##bréf
heimild
##lan
úti
Björn
svið
barn
búið
bet
Akureyr
##ninga
kannski
lands
ábyrg
##jandi
sjö
málinu
##od
næst
##fall
##mer
hugmynd
skal
##ennan
setja
ætti
sög
kepp
Hver
##óta
knatt
##komulag
gre
##dal
blað
stefnda
höfðu
##set
leit
jan
nauðsyn
vann
##nings
síðast
samfélag
fylg
##ökum
grí
upplýsingar
þjóðar
##allað
manns
50
##nis
myndi
sjálfs
Hæ
##bb
framleið
jafnvel
##ás
Þann
reik
breytingar
Ey
##vi
##afélag
##legar
tillög
Dan
viður
virðist
viku
Man
An
El
fjárfest
þjálf
##skrif
árs
##utt
Marg
##bót
þér
daga
telur
##ningum
formaður
raf
##ám
Hal
hvaða
Alþingi
##amót
##aðila
##irnar
reyna
manna
gengið
##sí
Hr
sölu
Bar
And
erfið
##asam
##ætis
sel
100
Einn
hverju
fann
197
verkefni
sögn
skól
##sveit
lagi
##hug
þennan
##úní
erfitt
ríkisstjórn
margir
##veit
des
##rit
##efnum
##ew
##ham
janúar
maí
frekar
##keppni
##flut
svar
veð
##eggja
##át
sögu
gefa
okt
málsins
hring
##ygli
júní
##jal
þarna
##ingin
Mér
##ré
grundv
hóf
útg
##for
önnur
##óli
þjónustu
00
samræ
Sn
sept
komast
##hor
##ákv
##erfi
staðfest
vax
##eyti
##ck
þakk
##rakk
þurfa
##ríl
##jarn
fjöld
##oka
komu
Stefán
##bandi
Fl
##laus
##undur
íslenska
##ræn
26
Land
##aðan
Har
staðar
##uka
##str
##lur
##kr
Fyrir
ráðherra
hálfleik
##va
bjó
##mæli
##stæð
fang
##irkj
##isins
##laga
##taka
ums
kaf
áhuga
fjölmið
læk
borð
kar
##slur
komi
vak
##stjórn
##samband
##naður
allra
##jarðar
Þessi
27
##riði
reyn
##ön
##dr
##ow
fólki
##hn
Bir
##staða
##geng
október
allar
nota
tala
munu
##augar
Halld
nóv
hla
ap
##rik
mars
##jöll
hjál
ríkiss
Morgun
eina
klukkan
mikla
##le
##laug
skuli
Li
##ason
##ssyni
##bol
tap
áher
skemmt
##gar
Þannig
##ala
mbl
hlið
langt
Or
fel
Kef
flutt
##alið
óv
##næði
september
##rh
segist
heilbrig
##agna
##smaður
árang
##ofnun
##nes
ríkisins
Hau
undanfar
##unnu
##endir
##cel
28
versl
Hv
Rík
Lög
desember
úrslit
athygli
náð
skóla
40
sóknar
þurfi
Jo
stra
reglu
##irði
fyrirtæki
áætl
hvor
nýja
fe
knattspyrnu
einf
vef
##yll
tæp
Mo
tíð
talið
spila
lítið
átta
##æra
nýtt
ákvæði
hinn
ið
óh
Ólafur
eink
eðl
Var
bæjar
Ro
2008
viðskipta
aðra
mikill
Því
##ólf
##æmi
kröfu
##ep
##ester
##tíðar
þig
tímabil
##jónvarp
##listar
##estur
##ýra
##nas
##ass
nóvember
liggur
##öp
##ne
##óra
hin
engin
tækif
inni
apríl
auka
ákveðið
fulltrú
gerir
ken
dýr
jafnframt
##id
sjávar
virk
##öt
##fyl
nýju
allan
Da
milljarða
staðið
væn
##ína
les
kjöl
##óma
Morgunblað
##anlega
Vil
svip
fylgja
athug
ánæg
nokkrum
##úru
einstakl
vildi
##astjóri
##komandi
##nit
Ben
aðila
##ríkis
leikinn
Svo
##reind
##anefnd
Ver
##sent
telja
##spur
þriðja
Leik
##jögur
##eistar
sveitarfélag
Þau
##amm
kvik
hversu
gild
##skum
Gí
Eins
Sel
Sigurð
##aupa
greiðslu
Kaup
foreld
##hf
196
##ifreið
leig
fjar
##skap
Halldór
júlí
almen
##ay
##slega
##tals
örygg
ey
þrátt
##hluta
stefnandi
##afa
##alt
ur
frétta
vita
frem
##smið
enginn
ágúst
##run
##veið
Jónsson
##eldi
##fr
##els
##sir
hlý
tölu
sinna
##stjór
atkv
séð
##ant
febr
pen
Pé
##raun
##ír
At
Pál
29
kjölfar
ál
nýr
Fyr
##sá
lengi
tím
framhald
Mik
Ingi
nál
Magnús
##asta
rit
Kó
##ný
fjögur
Ís
##gjör
net
tveggja
samt
em
umferð
##alag
ehf
##skar
fót
gildi
annarra
alvar
##finu
##lavík
miðað
fell
prósent
##eyp
tryggja
##afl
##skoð
##sli
Keflavík
Ör
##jóta
kær
ársins
febrúar
búa
þessara
##ogi
##úð
sæk
góða
##sflokk
##legri
fannst
ábyrgð
úrskur
el
##éttar
##eðla
sit
mán
##app
afar
gagnrý
miss
sýna
markað
forsætis
heima
form
##repp
##firði
ráðst
þrjú
hund
ska
##vinnu
gekk
##vang
draga
##amann
##ddi
umf
dreg
##reng
Sjálfstæði
##önnun
Pétur
aðrir
mikilvægt
##ára
ney
195
félagið
##uneyt
grunn
hf
tíu
##nda
##skipti
##breyt
##aðsdóm
Austur
##eitir
Heim
úrval
smá
##sar
Re
stjórnmál
Sigurður
##aleik
leiknum
hví
stóð
komin
varðandi
31
##mæl
konar
##irkju
Akureyri
Reyk
Ný
Gar
Guðmundur
bandar
##vinn
##trygg
kvenna
liðsins
The
##amaður
Bl
##aðist
##töku
starfsemi
##vís
íþró
##sdeild
skot
sambandi
##bund
##yng
Unit
leikur
mörg
lyf
##ötu
##æðu
Björg
þremur
minna
bæta
##sdóttur
veik
##ítal
skoða
forseta
umræðu
United
haust
##ce
sly
##uneyti
Ragnar
snú
strax
sterk
bera
vatn
##aldur
ofan
aðil
Einnig
áratug
##undir
##mönnum
megin
##ia
umhverfis
megi
##ndur
##öx
##brot
fari
sek
flyt
##áttar
stjórnvöld
þyr
uppi
deil
##last
samband
sbr
KR
markmið
##jörðum
ar
##berg
bjar
Bandaríkjunum
Ste
##eif
##brey
jarð
styrk
194
kaupa
##laun
##aráðherra
##po
hendur
##finn
lék
##ónu
##chester
fasteig
hn
##væ
undirbú
New
eignar
bre
spyr
dæmis
náttúru
tækifæri
gefið
sjónvarp
málum
gest
íslensku
tekin
##da
kjar
##kvöld
vorum
mennt
lif
samþykkt
leita
nótt
gaman
##veru
laugar
bá
##þjónustu
##jaf
bandarí
hagsm
helg
##ægt
Manchester
veitt
illa
be
rök
tölv
##elsi
##indum
Frið
betri
þri
fyrrverandi
##dís
##ddur
##öku
kvikmynd
heimili
skap
##enju
##liti
tvær
mætti
##mun
fall
deildinni
##bætt
##nið
Rúss
Arnar
skipti
##jóðs
##líf
stefnu
tvo
Mál
##sæ
##dir
skipulag
húsnæði
##engi
##eistara
##ingunni
neð
huga
rannsókn
hvers
##ola
##vil
##áttu
dæmi
Sví
##ich
##ou
Sjálfstæðisflokk
hálfu
35
fljó
##stofu
ákærða
##ungis
##göng
aðgerð
mörgum
##aflokk
frið
leikmaður
Rú
mati
sjúkra
##eym
samræmi
##veld
##ba
leikmenn
víða
ev
starfa
hél
fólks
Fjöl
##erfið
Vík
##raust
Hafnar
kominn
##okki
samkomulag
##skil
##ykir
varðar
2009
aðild
Mark
Hvað
##skatt
##hr
hvert
karla
Íslendingar
stuðning
kref
##yrk
ref
framtíð
gaf
læg
skýrslu
stundum
##ugt
síðastlið
föstu
##aðst
höfuðborgar
merk
Sigurðsson
Þorst
##eftir
##ættu
liðinu
##komu
##laust
forsætisráðherra
##svæðinu
gagnvart
##há
##nason
breytt
##útveg
##kon
##ætti
undanför
bifreið
Þý
men
##undar
bið
hitt
söng
bréf
##bí
lagði
færi
2007
##ulltrú
frábær
Vestur
upphafi
##oðar
pers
##ingað
stof
kringum
sínar
síður
##ríð
##pool
##rip
##brög
val
öf
Ásg
Sm
Frakk
úrvalsdeild
##asem
##ggja
samkeppni
fóru
str
hélt
2010
##æðið
slíkt
##þór
óg
sunnu
starfi
hjálp
##tin
Stein
byggja
veita
eftirlit
Ham
meðferð
né
Mið
##ninni
sól
nafn
æf
ton
einungis
rætt
##ity
gat
##dur
Liver
##greiðslu
svæði
Eg
beint
hendi
##víð
þykir
urðu
örug
45
konur
##kar
Þú
Guðjón
##rað
Liverpool
##aðili
atvinn
##ikt
yfirlýs
##rau
Út
ríkisstjórnar
skrá
##gerðar
næg
##arinn
sótt
loft
einfald
besta
##yrði
Karl
lengur
Þjóð
stefndi
fremst
##nari
##agi
samtali
##óknir
##fylk
##ettvang
##eta
##lögum
##ræður
Upp
##ton
margt
##fræði
60
##ofnunar
Guðmundsson
getum
Félag
breyta
Berg
millj
##björg
hjar
fundi
##ðust
##ínu
framkvæmdastjóri
rannsóknar
leyfi
upplýsingum
##skeið
Veg
máls
ákærði
##aut
Þr
íslenskra
gríðar
##ingarinnar
##alega
keppni
##nust
##eyriss
##enti
Þó
##læg
##gjöf
Kat
tví
##jarnan
niðurstöðu
sjávarútveg
Sigurðar
sjálfur
ólík
þörf
flugv
##afna
frest
##arfélög
tilkynningu
hverjum
lýst
##bil
líkam
þriggja
##eðlabank
áhygg
hre
flytja
Davíð
alþjóð
Le
aðstæður
##slan
##höf
Íslen
##ölum
tveir
Pá
komst
hingað
##ræðum
the
##reik
hinum
Evrópusamband
##bolta
##ingi
##pav
##insæ
##fjár
la
2011
##jað
Kr
hætta
##ens
Lögreg
kenn
Alþingis
##umál
reyndar
jafnt
Breið
samh
##stjórnar
hættu
##einsson
##ögðu
hið
hætt
leiki
próf
##valda
##manns
lét
##áætl
##öst
tóku
náði
mínútu
Samfylk
##mitt
##esi
gærkvöld
gerðar
Aðal
##ob
drei
##sfólk
hót
##ningin
##kkur
þróun
##banka
stúl
##jós
hé
loka
olí
##ömmu
árin
##angað
síst
##AR
fái
niðurst
sameig
afh
##zt
tald
##skal
##nist
##yfir
32
Íslendinga
rúmlega
báð
Stefn
þurfti
skamm
##nin
Bjarni
hönd
500
##íð
##tím
viðbót
göm
þor
##strar
##ríður
lífi
##hl
##hóp
ljú
Árni
##afar
sjóð
karl
annan
störfum
áv
Bretl
##co
pl
ós
Helga
##ry
##mur
##bý
sátt
Páll
lögregl
##amark
hær
##öldum
sýnt
##man
lögð
reið
hefst
##skir
ferða
gengur
fjölskyldu
einmitt
gangi
##bar
atriði
lokið
##seti
Fer
eldri
Chel
aðrar
Hins
##ref
##hel
##heið
hög
##alli
bendir
##rid
reynd
##ússon
##iti
##sea
##ildur
2012
flut
hlutverk
##ond
##endingar
Kópav
síðari
Ríkis
tekju
greidd
##manni
Chelsea
miklum
fjárhag
mæl
2001
vegum
##smynd
Guðrún
spenn
engu
líklega
Hall
Þýskal
##orku
##þeg
##stað
grun
##áfu
mínum
36
##kost
utanríkis
daginn
sækja
Geir
starfsmenn
ít
neitt
##gæ
leiðir
sendi
bjóða
banka
skipta
##tingu
##ðurinn
FH
almennt
##ork
kosti
##deg
mála
Örn
##hjál
##aus
Alþ
látið
Sól
lauk
70
##öður
áherslu
Arsen
helgina
##óg
hérna
2006
seinni
landið
viðkomandi
ljósi
fjárhæð
##exti
rið
tilefni
hygg
mar
##afni
##ssam
féll
Menn
búinn
sjónar
rif
Fjár
##bók
##björn
væ
einum
Finn
hrein
90
Sú
Frá
nánast
sviði
38
Herra
Self
##bætur
væntan
ætt
Dag
##ts
##breytt
##sett
þingmaður
þrjá
ra
liggja
dótt
þyrf
þangað
leikjum
lít
##raum
þurfum
bý
33
skoðun
góðu
##leitt
liði
Ág
##arar
2013
kröfur
##skost
##ustu
sjálfsögðu
eigum
##amma
samein
##brögð
vettvang
Auk
Þær
fremur
stutt
fengu
##aka
byrjun
Gunn
mæta
fag
jákv
mínútur
##æma
leika
ensku
vinsæ
nefna
vek
tónlistar
fjórum
##slunni
bún
fík
tr
dagskrá
##legan
Reykjan
för
Holl
áttu
##fum
selja
##ras
hvar
##bré
##skipta
hrey
##smönnum
greina
ES
hugsa
líta
stjórnarskrá
##ögnum
öld
áhug
uppbygg
athugasem
ræk
hljóm
City
reynslu
fjölda
##rak
Vir
vetur
dögum
fyrirtækja
vissu
þakka
gætu
##ro
aðstoðar
##skýr
##gir
íslenskum
##arlega
ríki
orku
Kjar
persónu
##eina
##þá
bil
minnsta
##ikar
##amönnum
am
yng
##skra
landbún
dómi
nauðsynlegt
mínu
degi
taki
##afyrirtæk
komist
svok
fyrirtækisins
Margré
##inguna
óþ
félaginu
##ykt
##fyrirtæk
##ák
Sh
umfjöll
##æt
##oli
##ólití
beri
einkum
röð
fyrirtækið
##ven
80
sameigin
##ace
verulega
milljónum
##jun
tónlist
þung
baka
vest
Icel
##svið
Allt
Ví
##stí
##fræðingur
##jóði
möguleika
##anga
##liða
Helgi
##eiti
höndum
##erfinu
##ingast
lág
tiltek
þingmenn
##ból
afleið
##vist
margar
##svar
send
Arsenal
níu
kalla
búin
##lik
Vin
reynt
##slegt
frjál
hjó
vandamál
Ásgeir
##old
Sch
##örnum
styð
nein
vísað
2014
boðið
geri
##ez
ráða
talað
##jir
nýta
Já
þriðju
manni
##legi
##agreið
lýð
fjallað
vél
trey
Trygg
ýmsum
árangur
Dóm
mönnum
Bened
árás
einhvern
lokum
gró
Hæstar
jól
2015
Ákær
fjármagn
höfuðborgarsvæðinu
ótrú
##agt
sagðist
##janna
núverandi
Síðan
frekari
hál
Bandaríkjanna
##vegar
hæg
##upp
góður
Mynd
kynna
mynda
2016
byggingar
fædd
afla
mátt
##skuld
lést
##afor
ástæða
Gunnarsson
yrðu
heið
færa
viðurken
ríkið
mestu
rak
sinnum
mitt
##lað
milljörðum
ætlar
tímabili
frí
ró
##auða
embætt
Mad
##áld
##lítið
reglur
topp
endurskoð
ástand
##ndir
Se
Benedikt
2005
##sal
mánað
Arn
meið
193
fíkni
##eira
tengd
einka
##bæjar
þeirrar
##orf
vilji
svæðinu
sammála
ríkisstj
Stefnd
##eint
##búð
Selfoss
Framsóknar
##ætur
##ress
dug
##bert
stofnun
nágr
##ári
grundvelli
##efnið
lát
safn
pr
##undum
tilvik
litið
##ings
mismun
sérst
tals
undanfarin
##ðingu
##smann
##esk
tjá
líkt
erlendis
##aðil
##uni
algjör
lítil
deildarinnar
##óst
tekjur
##kaup
leiða
##ækkun
ætlað
síð
miður
##hv
##ykki
34
menningar
2000
starfsmanna
##ie
##tion
75
##eyjum
íþrótt
Seðlabank
skemmtileg
Ger
heildar
skulda
##leikum
græn
myndir
Hug
##ub
Hús
gefur
##húsinu
##rímur
Borgar
atvik
umferðar
##heyr
##ager
skiptir
##læk
sner
Háskóla
Jafn
bíla
##velli
stu
##legra
##stól
##lau
orðin
Vestmanna
2002
Landsbank
hest
sveitarfélög
##tun
##svæði
##gan
##oti
tilbú
Bryn
##eyris
falla
fjölg
##linga
##virkj
Verk
horfa
hljóð
helst
brota
##ddu
##jöf
ræðu
Már
2004
hefð
##flutning
gengi
##braut
fimmtu
##slag
einfaldlega
skyldi
benda
##pítal
1991
gerðu
svör
##stir
##erfis
##sþ
raunveru
37
tókst
beð
framan
aðstoð
##orm
Tv
ham
bo
Stjórn
##köst
laugardag
Th
##verki
ESB
##auka
hvorki
njóta
Auð
2003
##þjóða
heilbrigði
##enni
aðilar
nefn
pólití
helm
öryggis
##sögn
Eig
gerist
##afirði
##stöðvar
Þing
Friðrik
rekstur
eðlilegt
##éð
þjóðarinnar
Sl
##dda
gamla
skaða
##tíu
auglýs
##junum
skyn
venju
##indavík
rekstri
##öllum
hæf
Grindavík
##litið
Anna
aðger
móður
framleiðslu
dreng
##vöru
starfsfólk
milljarðar
leggur
Úr
framtíðar
Ólafsson
skref
Kristín
neðan
rekstrar
##unarinnar
kostnað
spar
##áætlun
Gu
getað
##eður
300
ofb
##jall
afstöðu
##orn
jóla
Snæ
laus
veður
bestu
bætt
Íslandsm
bann
##hæf
mikinn
vet
Danmör
Laug
##grein
##afólk
tengslum
##ldu
mæli
##býli
miklar
##élar
##ögunum
óvart
fylgjast
kvaðst
norður
eigu
verðum
skilyrði
##ýst
##tanum
Em
bur
Forseti
þjálfari
borið
notkun
tími
þín
Kon
Stefnandi
aðgang
##kenn
##pu
##öngum
nákvæm
lista
Lá
##eldur
##met
keyp
##olf
Heið
##kyn
IS
sker
Bo
styrkja
##minn
##lif
fullyr
##herr
laganna
helstu
Fyl
##du
kanna
sty
hófst
##ris
##fang
##afi
kíl
sunnudag
tæplega
nýjum
þyrfti
aldur
##ndu
##höfn
hækkun
senda
bankans
umr
Frétta
##eti
tonn
ÍB
##mik
##eypt
ættu
##byggð
syst
192
rang
##tökum
##bi
##mæti
Steing
##lýst
efnum
mótmæl
##ýri
Sum
brá
lesa
sýk
Fre
lífið
heg
viljum
##flug
ákvað
##ildu
nánar
ákæru
43
##kka
Gyl
##ðulegi
##örður
sveitarfélaga
birt
börnum
mánuðum
börnin
einhverjum
##rás
##eftirlit
##lind
metra
samtals
##anska
sjónarmið
##bands
##urð
eing
##deildar
##liði
hækka
Kl
kosning
##ph
##las
framl
##magn
neit
skila
John
sigr
lyk
náttúr
breg
##óðir
vitað
íbúð
orðum
réttar
gærkvöldi
##ekt
Vig
kall
##málum
till
þótti
marki
ÍBV
góðan
##verndar
þið
garð
Hef
##bor
##greind
byrja
##tán
Eir
helgi
Vilhjál
ak
Hag
Ma
##haldi
##emma
Margrét
Sá
handtek
##gef
hve
taldi
refs
héraðsdóm
sal
mist
létt
mína
tilgang
víð
áhyggjur
##lir
strá
sveitar
Noregi
þurft
Meðal
##skor
sitja
##viku
##degi
Elí
leigu
lífeyriss
síns
nóg
##uneytið
maðurinn
heilbrigðis
Árið
Höf
vikur
##leysi
##dæmi
Sæ
umboð
takmark
Þrátt
##heimild
góðum
##ðingar
leikið
##stöðum
Ágúst
##eyja
hagn
Jóna
kona
##skiptum
munum
mundi
fangelsi
##ood
gögn
##dæm
##agerð
leiksins
##uðust
Rúnar
heyra
hlutfall
Spá
##nina
##ússins
##mrh
staðrey
Landspítal
nam
Norðurl
tækni
skatta
lögreglum
flestir
##alaust
##nám
##kran
hú
yfirleitt
##sleik
2017
55
áramót
stríð
einstaklinga
##akka
Magnússon
Reykjanes
tilfinn
sérfræð
##uneytisins
bré
##vir
##leikar
spreng
sýnir
Par
Svíþjóð
vinnum
Ítal
##UR
Björ
eingöngu
markv
heilsu
hár
svara
##jóður
##pi
##aum
Dav
skv
álit
Alex
##hildur
sigri
Enn
fjórða
sy
65
##book
baki
bíða
##heimil
##æs
##dýr
##SÍ
þýðir
##19
árangri
byggð
Héraðsdóm
sár
stefndu
Norð
##ho
mánaða
hjarta
##ista
lær
heimsókn
staðinn
##enær
stigum
##eyma
##vara
kunn
uppf
auðveld
Akran
brott
##nara
##skt
undanförnum
##bréfa
úrvalsdeildinni
##ellinum
##th
ástæðu
##ini
##skvöld
42
nýjan
gerast
Óskar
Framsóknarflokk
einhverju
##slunnar
slæm
beið
##acebook
gí
olíu
##pur
mánuð
verðból
##ýð
har
Matt
hjúk
langar
skipt
liða
stjórnvalda
deildar
Mat
milljón
##ons
##tökin
betra
viðbótar
kjölfarið
sök
##dar
snjó
##andinn
##geir
geð
meta
##skot
traust
##burði
Port
notað
teg
forstjóri
bó
Kol
föstudag
Valur
dreif
tilboð
þjóðfélag
Sigríður
##áttur
standi
##óður
York
##virk
hótel
tekist
##erki
tilraun
nokkra
##göngu
##lun
senn
ökum
##argerð
##framleið
spyrja
39
##nattleik
aðgerðir
HM
Real
fylgi
##bætti
ólög
fjárlag
ell
44
In
vissulega
stóra
Lí
suður
man
öm
bol
Danmörku
Skip
nálg
Sver
Annar
væntanlega
fjalla
slys
gamall
Hól
góðar
liðin
flutti
##lingar
greitt
ítrek
vo
##eistari
ríkisstjórnarinnar
björg
leitt
Ráð
Skú
tímann
De
##legir
Fólk
flokksins
Ír
Mc
Kar
##reyf
dóttur
##ruð
##bind
##ttast
gá
Starf
tillögur
##ðun
##nusta
útvarp
ól
Pal
Morgunblaðið
heimsm
##lt
launa
Co
##junni
Sem
toll
##öfu
atkvæði
##bjar
##ES
##borð
hækkað
##unk
græ
áætlun
##ileik
Verð
skapa
Suðurnes
Sjálfstæðisflokksins
Ákærði
tillögu
##reglu
##uld
##mörk
to
ók
Bæ
II
##þjónust
bús
veginn
##ine
##IN
stí
##bóta
myndu
##arðan
skráð
##leiðis
Seg
breytingum
gríðarlega
Barcel
örugg
braut
brotaþ
##stig
þessarar
sent
bent
##færi
##óll
heiminum
greinir
neyt
yngri
bætir
##þr
varst
##anlegt
##úg
Barcelona
Bu
nokkrar
##ugu
álag
##kjör
eðli
Vald
tjón
Hrafn
hlaut
##hol
##till
tilkynnt
Bú
##bir
##maðurinn
Gunnlaug
konu
400
kafla
sjálfstæði
Eirík
##lak
umræð
##vegi
engan
##fjarðar
##10
háskól
ák
spurning
Ind
jar
hreyf
aldri
##angreind
##dum
borginni
vöru
Samein
lækka
höfð
##oft
##aki
gerst
setti
##sfélag
##eðferð
Keflavíkur
##nun
Flug
spá
marga
##leiki
Ísra
Be
haldi
sím
viðtali
Tel
félaga
##æðagreið
##ym
##útvarp
bolt
austur
##farandi
þrjár
heimilt
fljót
##not
##sök
##amála
##ve
fi
slá
krónum
vop
##kona
afl
##ðarinnar
##væð
Ge
skrifa
##janda
slíkum
skilja
hópi
býr
kynnt
Atl
Lið
marka
##efli
klár
##húsið
##íðu
Stefndi
málskost
vörn
##burðar
##raf
1999
Borg
dagsins
skó
þessir
undirrit
hlutabréf
dregið
fækk
fráköst
##ama
tit
slökk
hefja
##asti
minningar
áfrý
dögunum
Facebook
hra
vikunni
##húsi
##gjandi
##afram
Sý
Ung
byggt
spilað
##læti
##sköp
yfirlýsingu
landbúnaðar
Yfir
##esta
KA
hlaup
##astjóra
##az
Mil
miðviku
nemendur
fjögurra
hærri
segi
1998
leitað
löndum
samvinnu
##rett
umfram
Madrid
hugmyndir
##menna
ykkur
Inn
##auk
kynfer
samstarfi
skipa
Hafnarfirði
##nter
skýrt
pab
##mundur
óf
##versl
beita
##20
María
Sjá
hinu
Kína
foreldra
##ingurinn
kæmi
fjall
Jak
Vinstri
hefðbund
##issa
##ylt
hör
framboð
##ustan
##runar
##degis
gif
fullkom
dre
heimas
##yss
ömmu
##snefnd
Ragn
los
fréttir
Ari
leiðt
ljúka
Allir
fæddist
augljó
umfjöllun
áðan
nokkru
##ripið
mætt
auki
##jóst
##rín
handa
harð
##ci
##amið
sið
Bretlandi
Jóhannes
48
krefst
##undið
##eði
Hil
húsið
skora
Odd
DV
##ys
hvenær
síðastliðinn
þætti
##boði
sóknaraðila
##unna
aukist
vona
Vís
Þýskalandi
einst
##ddir
leidd
##ilegum
stjórnarand
##júp
##agni
##urum
niðurstaða
##rumvarp
hlýtur
hjón
fullu
##ríki
Hvernig
##sluna
kosningar
Egil
styðja
amma
orðinn
vanda
##ilegar
##11
##sýslu
nefndarinnar
samgöng
dá
ákveðin
jörð
upphæð
aðallega
Breiðab
hepp
Jónsdóttir
ríkisstjórnin
svolítið
keyr
mismunandi
Baldur
Skag
engar
##linum
stórt
##one
hljómsveit
málefni
Má
son
Am
Dr
þrír
##qu
skömmu
fræð
vei
lax
Maður
##samning
##mum
Mart
heit
borga
seld
legg
##líð
meistar
staða
##yðju
stöðug
nærri
árunum
opna
##ndum
##áf
46
boði
dæmdur
verslun
Kaupþing
##vatn
Di
##varð
##de
flutning
byrjaði
##rabb
hátíð
Virðulegi
fólkið
unnu
##jörð
##önnunar
staðan
Gl
löngu
Ju
háskóla
Katrín
##ella
magn
tímabilinu
uppá
gjarnan
Hl
krafist
##ós
stærri
beitt
öryggi
bætti
Þórðar
Niður
##allt
Sameinuðu
##enham
dagana
leysa
iðnaðar
Sigurjón
##anleg
Mich
heimav
Hæstaréttar
afmæli
forset
tillit
framkvæmdir
Tóma
byggir
##öðvar
fiskveið
verkum
birtist
##uneytinu
##ungur
þingi
syng
efstu
##ter
vísind
##atni
Kjartan
húsinu
ræð
##tor
kjarasam
efnis
##marg
Kristinn
Kristjánsson
kjö
##setningu
##efnir
dans
Sér
óm
tólf
Sigurðardóttir
breyting
##anefndar
nokkurn
gerðist
##verka
##róf
##jóra
##kkar
embætti
tex
##leys
##ött
Lit
Bjarnason
áhorf
mörkum
##lugg
síma
fjöldi
lögreglunnar
brý
snemma
bænum
bekk
körf
fyll
Alls
slepp
vettvangi
íbúa
de
##daga
##ínum
eign
mikilli
blóð
sannarlega
##ash
##mat
föður
##gjald
sæn
fallið
fjölmiðla
talin
hrun
stefna
afgreiðslu
Sand
verðlag
Lok
vexti
##ödd
þétt
stöðum
Árna
##jarð
enga
Kópavogi
##BC
nógu
sýning
Lögreglan
sjálfum
fulltrúa
##stefn
heitir
Tott
##íða
rannsóknir
##ata
rannsók
varnaraðila
Einarsson
kostnaðar
##eldis
seinna
sinnar
Jakob
ákvarðan
##sókn
##vernd
dags
uppbyggingu
stó
##insson
Eitt
Tottenham
lengri
Hjör
íþrótta
bró
minnk
Elsku
##eign
lýsti
rý
hryðju
valdið
óskað
sat
virðis
tæki
##gerðir
framlag
hæð
vinnumark
mein
RÚ
Tal
Björk
reglum
##gis
##bergi
beðið
liðs
efla
hrað
sko
##ungu
##ib
Nei
##ögg
aðferð
##IR
snúa
fæð
víta
##sár
hi
útgáfu
##slög
komnir
rei
##rímsson
greint
lögreglan
nefndar
Ólafs
he
Júlí
breytingu
##rest
nákvæmlega
stærsta
David
##amb
56
Ant
kem
##úd
##eigu
ánægður
vinnur
kapp
##hafa
##engis
vinstri
##fólk
björgunar
einni
Ná
##onald
jafntefli
Bjarna
stel
##íkja
Stefánsson
nýrri
þaðan
fory
Vestf
fullt
##kvæði
ster
embættis
Ranns
vísit
já
##io
##verði
##spurn
umhverfi
Dal
##alaga
mjól
úrskurð
viljað
fylgir
##TA
##kast
fjallar
markaði
##ulltrúi
ris
##vilið
##estir
eiginlega
RÚV
##shóp
##tra
##nefndar
báðir
vestur
jafna
##stand
##out
##agð
Fær
haldin
sambær
opinbera
stærð
spilaði
##imar
kirkj
lágmark
ávallt
fjölmiðlum
gögnum
47
nýlega
##endingu
##lin
skoðunar
bot
stol
áttum
##ræk
keypt
erlendum
rétta
kjó
Meistara
margra
##alög
vara
skrifaði
kröfum
##öldu
Lond
##öxtum
##rækt
Hallg
##par
samninga
##ns
##ýs
klukkust
57
List
holl
ætlaði
Börn
hvern
flokki
ljósmynd
enska
Hin
##vísi
Lík
##töl
##ca
þinginu
London
Ell
brug
Heil
Ser
##kl
horf
##launa
virðisauka
vísa
almennings
atvinnulíf
Gísli
49
fundar
com
Þorg
stoð
km
##laup
##arkost
spennandi
ágrein
fug
Gísl
lýsa
##sley
Ha
skáld
ýmis
85
Nokk
vitni
##skipulag
##afræð
flestum
kallað
41
fyrirhug
leyfa
fleira
2018
undanförnu
Hauk
mánaðar
Björgvin
semja
bæk
Hafi
##stæður
rekja
verja
##þega
túl
##ney
##skólanum
Helg
samningi
líður
hámark
Aron
ing
þjóðanna
Hæstv
##úrslit
##takanna
##skipt
Foreld
lausn
##sak
ert
falli
eignir
mannrétt
West
baráttu
sjúkdóm
aðildar
##öllur
upps
Blönd
könnun
fyrrum
hafnar
mætir
Mikil
##ínver
slíkar
lýðræði
##eyri
annarri
##umst
stiga
milljóna
##per
1997
líkur
bikar
virðast
Jóhanna
spurði
##oni
nemur
##koma
##slok
báðum
litla
velja
Pet
91
##rétti
##sýn
##grei
Samfylkingarinnar
Vit
##mist
##rump
Ad
gull
stórum
##áh
viðskipti
##ingarnar
##örk
Njarð
Ingibjörg
Þró
félags
starfaði
##burð
Jónas
ennþá
Jap
félög
##brigði
leiðin
stjór
norðan
pening
ríkissjóðs
##félög
Ósk
slíka
Þarna
unnt
sökum
##hring
vikum
Þorsteinn
##amálum
Lei
##ec
Per
grundvallar
vísu
forystu
lögin
Sigrún
stóru
vist
hugsanlega
Inga
Njarðvík
lifa
tug
##AN
stúlk
stærstu
sýningar
fjarlæg
Slík
##rabbam
##lát
fjör
##ilja
liggi
bráða
vekja
ánægju
valdi
fyrirtækjum
töluvert
nafni
##vax
námskeið
sló
54
kaffi
sólar
staðreynd
##ave
mótinu
vega
##önnu
viðtal
150
##hluti
fórum
Fréttablað
tagi
niðurstöður
telji
heimi
sést
##bein
ými
53
upplýsing
laugardaginn
bjart
fyrsti
punda
Garðar
Sigf
Þótt
88
##gen
glæs
farin
##vinnslu
Trump
##ael
Thor
nýjar
kerfi
Írak
##ilegur
skeið
##étti
sund
Lu
hinna
##iel
umrædd
##turinn
varla
úrslitum
bregðast
fjárfestingar
Margir
ÍR
stýr
tölvu
verslunar
##extir
hita
einhvers
Ál
##jug
skipu
gæta
66
##skrift
Hví
##ford
samið
muna
##úbb
##fellt
##eppninni
vænt
lengra
skorað
##konu
Jóns
stunda
talsvert
hlutaf
brtt
##höll
teik
vitum
##smálum
##ont
Bí
doll
Snor
##óti
sekú
hundruð
Þorvald
efnahags
almanna
vissi
jafnaði
sýndi
innheim
reikning
Morgunblaðinu
Jafnframt
ráðstaf
##mælum
Gré
58
Ed
##ranns
sjálfst
##sló
minnst
reka
viðbrögð
Pep
fat
##bandalag
##ong
##ögur
##agði
dró
Kom
##llinn
hina
óbreytt
##riðum
þingsins
hratt
Svein
algjörlega
veiði
heils
verðlaun
ævin
borist
borgarinnar
##holt
Tón
##bjóð
einstakling
hringir
einstaklingar
tapaði
52
markið
##skyldu
Sal
##velt
hafnað
Snæfell
frumvarpinu
ofbeldi
hjálpa
dál
umfang
##rasil
##börn
Guðlaug
Hjál
álykt
##jónar
67
kennslu
Georg
##lín
Frakklandi
##erfisins
sleg
##essor
augum
Evrópum
##ólfur
##ómet
Staðan
Láru
skilið
mistök
afa
Hinn
##mæla
alger
hvet
##stjórinn
##éttur
Bla
umtals
örugglega
úthlut
neik
Inter
dráttar
víst
ítar
forgang
##jalla
jaf
Hægt
sumir
læra
lú
afi
##hátíð
hópur
breska
gjaldþr
skilað
fræ
framleng
Stjörn
Árnason
bandaríska
réttindi
EM
búnir
##heiður
Kv
ákvarðanir
fjármálaráðherra
bréfi
seint
varða
Matth
gæslu
##ema
##angur
Ann
##dagur
kveðið
þátttöku
samþykki
sögðu
Bygg
þrí
##næg
##æslu
fótbolta
##íska
##skan
##rúm
tónleik
##eri
ætlum
utanríkisráðherra
samhengi
barátt
##gild
krafa
Afrík
##ev
63
Car
Auðvitað
##tic
nálægt
upplýsinga
##alýð
fagna
##jist
Viðar
##flu
vaxandi
takast
meirihluta
brotið
algeng
grá
litlu
felst
##oga
##SK
lykil
##færslu
##þjálf
áhrifum
##atriði
##undu
landam
Akureyrar
sannfær
##ungar
Foreldrar
ek
73
Ísrael
Gri
##afræði
600
##eyjar
Selfossi
samskipti
náðu
##knattleik
rafmagn
berjast
Glit
95
útl
verðtrygg
Pr
einb
lána
ýmsu
reglugerð
Ra
kostur
peninga
alvarlega
skuldbind
##kerfi
tilvikum
Breiðablik
##ord
endurný
fulltrúar
##sögu
##ces
kg
þætt
systk
##elg
64
##ámi
tutt
matvæ
##aland
##restur
athugasemdir
##nesi
##steinn
Kró
Gylfi
raunar
Orku
völdum
##ráðs
kjós
gefin
Ítalíu
tvöf
vildu
hundrað
Tim
slag
##eigandi
mínútum
##unnan
greindi
##gjafar
draum
einhverja
##æf
fáum
bráð
heimasíðu
nálgast
kostnaður
Ag
formi
sendir
Eld
Björnsson
fyrirkomulag
tilheyr
##ww
stefnt
##óf
erindi
framtíðinni
starfað
Lang
Evrópusambandsins
ýmsar
##anni
Aðspur
skrifað
##ern
ne
Op
Amer
sjálfu
miðjum
##ute
áfengis
foreldrar
stefnum
gömlu
##vak
Næ
##etu
gagnrýni
gjör
##ráði
eftirfarandi
geym
greinilega
greinargerð
viðskiptum
aðgeng
kunnugt
##vo
ýmislegt
vind
##vél
framher
HK
##stein
leiktíð
minnast
##önsku
alþing
skrifar
www
fagn
##yfirvöld
framhaldssk
besti
velta
##nni
vísar
BBC
Egg
##ick
1996
heimilis
brú
##ymp
Spur
mánudag
tímar
##aul
##ítið
framangreind
##horf
pí
##bak
Undir
hinsvegar
Öll
fljótlega
flótt
##verkefni
langan
gist
dauð
úts
##birg
vaxta
##esti
greinar
##jóri
ský
Freyr
##skj
##kra
Maðurinn
La
framkvæmda
Hefur
##12
##hverfi
fundið
búast
tung
sigraði
##ölluð
Andri
Vestmannaeyjum
##skólans
59
##ack
boltann
leiðinni
akstur
##gangur
sumarið
dý
tilliti
Morgunblaðsins
##ane
ótrúlega
aukið
vant
##hrepp
1995
jöfn
ís
##skólann
Noreg
renn
Vegna
Harald
verðmæti
ákvæðum
tengjast
neyslu
##aðilar
komust
Garða
situr
glí
##agjald
hræ
##risti
72
ákveða
vinnust
rekstr
varði
lækkað
óska
auðvelt
##alan
##issu
útil
##urn
skilab
99
Ald
öku
skyldu
##mir
##esson
öðruvísi
##ötur
reyndi
lönd
##væði
##jendur
heimavelli
##ýðu
miða
lýs
##sturinn
##ingarf
bað
samkomulagi
neyðar
sál
##ian
##virkjun
kenna
leiks
ferðamanna
Hannes
##ander
##sjúk
Sund
höggum
1993
fyrirtækinu
hjóna
ætli
tölur
##yggju
##holti
ní
##tinu
Ekkert
fullorð
sorg
hlutverki
fimmtudag
fræg
frumvarpið
vestan
verksmið
missa
arð
vörum
mesta
bóta
fljótt
upplif
62
##hækk
68
gilda
aðgerða
keypti
útlend
69
myndinni
76
##18
dyr
mátti
komandi
lækkun
##ardal
##ærum
##nuð
##asafn
þingflokk
viðhald
Vatn
vonast
##aldri
Meistaradeild
Jam
Tor
##avar
hliðar
##stofn
800
ráðið
ferðinni
líklegt
##sjón
ellef
Gíslason
undirbúning
Tí
hafið
Sa
Áður
flokka
eignast
Hilmar
Jóhannsson
fundinum
Kópavog
einken
kunni
meðaltali
þingið
##hall
tengsl
##mót
74
sjald
##fundi
fátæk
áform
trygging
##íel
##lof
##nuði
handknattleik
öflu
bankanna
Nefnd
rí
sérstakt
##reina
##amik
Ex
dómsmál
##ena
##jöldum
Atli
reyndist
##ani
almennra
hjálpar
stóðu
##urek
heyrt
vakti
To
yfirvöld
fasteign
næstkomandi
vefsí
Líf
hækkaði
77
tog
Ingvar
##aflega
Ríkisútvarp
Ang
ætlu
li
spæn
gömul
prósen
##veig
1994
sýn
vörur
##ötum
kílómet
fjóra
Stór
nái
eðlileg
##hól
Sveinn
Mig
ill
##farið
##þingi
190
Minn
félagar
snýst
lækni
par
dóms
##fremur
##ofu
haldinn
matar
##arði
##stöðv
##óa
viðræður
##tölu
ítrekað
upplý
sjálfsagt
Akranesi
##ofa
##ræna
aðstöðu
spítal
sérstaka
##sstöðum
##átta
þekkt
beiðni
hærra
ræddi
##stund
##itter
meðferðar
Gísla
fur
##fræ
samningum
ferli
héldu
hverjir
eigna
##ps
##félagið
Brynjar
fengum
samfélaginu
tóm
klára
##ilinn
virtist
##afla
Gro
kostar
##runa
Aftur
þings
##stíma
fyrirmynd
##færa
valda
##AT
stjórnarskrár
Net
þol
##elsis
##úðar
töf
Stjarnan
velli
stofnað
gæsluvarð
skuldir
bílnum
landa
stöðv
Steingrímur
göng
spjald
verkefnum
erl
##ams
grípa
myndum
##tri
##assa
lokað
##herrar
ráðh
##virði
##ábyrg
Laugardal
##aley
nefnt
flý
##ylla
barst
guð
78
##isvar
hægri
##sstöð
Iceland
spilar
##réttar
Grein
##stum
ráðstöf
vantar
Talið
##pl
Eggert
vott
Hjal
endaði
EES
ráðherr
samnings
ágæt
hefjast
viðurkenn
##burg
##egin
Englandi
lýsir
hagsmuna
Tyrk
mannesk
tökum
skýra
þyng
##jólf
##vísit
brotaþola
skoðanir
strák
Mun
##afjarðar
greiði
tuttugu
##acute
Ás
högg
þekkja
stækk
Landsbankans
Sé
##alá
náttúrulega
sjóðsins
84
hegningar
kort
móðir
Tveir
##aflokki
kjósa
He
Kóre
lenti
glæp
vikið
sýslum
fréttum
##jóni
hjól
uppfyll
##má
##störf
vonandi
51
fellur
Fylk
Grétar
framh
##witter
hlusta
##víkur
Fjármála
Far
Ást
eyð
##þátt
##dráttar
rúss
Evert
fjármögn
##búnað
verkið
Mann
velferðar
lýkur
lóð
##otið
Pepsi
bla
lægri
borða
##ldar
San
alþjóða
gleði
ekið
talaði
vinnslu
byggingu
##önnunum
##ettur
vernd
óvenju
spor
samningar
sókn
skynsam
##andair
París
staðnum
nefndin
##illa
##uss
rauninni
Kana
Guðni
##kveð
##eðl
lögregla
mega
vísan
eigandi
##búa
##arfi
Fran
svaraði
Sta
##ils
auðlind
##ljóm
tilkynnti
kross
##ræti
áhættu
Segir
Guðmundsdóttir
göngu
##vega
notuð
umræða
##stofa
bund
sunnan
blaðamann
gerður
oftast
Everton
fallist
tímum
gjaldeyris
atvinnurek
Spáni
##agnir
nefnilega
dómstól
##setning
##mennt
óttast
leikmann
heimildir
86
Hermann
Bri
Icelandair
##sig
Hell
frammi
##juna
leikmanna
prófessor
##afr
benti
##bíl
mats
##ahæ
glugg
Brasil
verki
Íslenska
horft
Sævar
elsku
loks
fyrirl
##snar
##annar
bát
morg
sérstök
viðskipt
jákvæð
Und
Kaupmanna
fiski
##ninnar
teknar
sjúkrahús
##inho
systur
stétt
##ier
fært
Annars
varafor
##skri
lagið
##hneig
þjóðin
farinn
##verið
skemmtilegt
hraða
##lat
úrslitaleik
##alegt
##leikur
##shaf
##jarnar
##ökkum
##tæki
skammt
bjug
þátttak
ræðir
stúd
bráðabirg
slíku
stjórnarfor
útt
unga
virði
Pálsson
Sýr
erlendra
faðir
##vis
fjármálafyrirtæk
undanúrslit
trún
merki
liðanna
Mi
##ganist
Veður
hrá
##ano
Bandaríkin
byrjunar
Michael
setið
stuðnings
Ph
efn
##jarða
stuttu
##arat
##áhrif
virðingu
aðilum
Sport
th
##taki
breið
eigendur
bætur
sjáum
tilfell
fengi
##afélags
Framkvæmd
vakið
##BA
æð
þekkingu
þróunar
minnka
andstæð
##dóma
##arfsemi
##brau
87
##kos
Group
Mal
##alist
ævint
viðskiptavin
##bá
slökkvilið
reglulega
##mú
##junnar
##nú
virðisaukaskatt
mundir
rig
band
ímynd
##hit
notið
sjál
hvergi
##dá
Arnór
fíkniefna
forstöðum
hugsað
nokkrir
##verjar
menntamál
Ingólf
kjarn
Enginn
##flyt
skulu
##sýni
##afur
lætur
ferðast
Hólm
ferðamenn
##verja
Græn
staðfesti
handtekinn
##þjónusta
##ttur
##aðri
Þessar
rússne
Fyrirtæk
innlend
##burður
##vef
##rinum
bless
##öfur
83
námi
kú
##iz
him
endurskoðun
##deil
samningur
fylgt
myndband
ungling
##legg
frumvarpsins
getið
##15
starfs
fó
Bald
gleym
##stæðan
Mag
##safn
Málið
79
##unefnd
ÍA
##kku
##spil
##bu
sjálfir
endilega
allri
kvað
fyrirvara
samskiptum
horn
stein
ríkja
Afríku
boltanum
Ices
ljóð
Ómar
##amarkaði
breyst
##min
austan
ágæ
naut
blóm
tekinn
##heimili
leikurinn
##ðung
Varnar
Svavar
skynd
1990
áhersla
Ara
lest
Birgir
forsendur
##breytingar
meng
þjónust
vellinum
##umenn
íbúðar
89
félagi
reyk
fjárfesta
##unina
sýni
Fjór
fól
##ölur
##vegis
##felli
mú
áb
##cast
stuðla
fela
##osa
##lunar
Haukur
Paul
Eyjaf
miðjan
##lendis
##ókst
heiður
byrjað
útgerðar
Fisk
formlega
##skirkju
spurningar
##ington
##ith
##uninni
Vilhjálm
Hen
mi
ábyrgðar
svæðið
##átrygg
landsliðinu
markaðs
leyf
##ali
spurt
Gunnarsdóttir
loð
IS19
Sverri
Kári
færri
bra
vaf
oftar
konum
greiðslur
##junar
hússins
##staðan
kemst
yndi
##stæðu
ló
##teng
##alæk
##framleiðslu
atvinnulí
skólans
##arfræð
mamma
forsvar
gróður
gei
láni
##hliða
##ösk
##tilkynn
botn
##reisnar
löggjöf
fasteigna
alvöru
##leggja
Markmið
Air
þurr
Icesave
##ótel
kli
Fimm
tryggt
almenning
##undan
almennum
##13
##úgal
völl
Þorlá
veiða
missti
##heiði
Su
ársf
niðurskur
samþykkti
hópnum
##smanns
##bili
##fé
Stöð
nokkurra
framkvæmdastjóra
##aðinn
Guðjónsson
forsendum
dan
##amp
tvisvar
Sveinsson
stjórnsýslu
undirbúa
hjúkrun
##ilegu
skuldabréf
##afundi
##vu
##eistarati
##lýsingar
Benediktsson
herra
##unir
frumvarpi
Barna
kór
Valdimar
setur
nægilega
verkalýð
##ildir
allur
##FA
Sjó
##leif
##skonar
tengist
ru
kveðst
krabbam
pá
##ran
lífeyrissjóð
starfsmönnum
gagna
félögum
aðgerðum
Læk
##ðin
Grikk
kostnaði
samræm
kvenn
Sil
þy
fjórar
Heiðar
Andre
byggðar
Stur
hátíðar
##vop
kyr
##helgis
dollara
flott
meidd
árlega
##drag
pari
Sviss
gleyma
legið
leikir
myn
sjálft
##dags
öflug
raforku
##hlaup
ellefu
##sóknara
SA
##íku
atvinnulífsins
250
##ingja
athuga
Elín
óeðl
##ilt
eigið
Bank
Harðar
skilaboð
##rn
Kára
##götu
lögunum
##fyrirtæki
##verksmið
einhverjar
##dögum
##lagi
##útg
Palest
verkefnið
Gró
gu
tilgangi
krakk
##ahá
##flutningi
82
lyfja
brjó
sífellt
einkenn
Skot
##isku
lífinu
heimildum
kveður
útskýr
Tek
beina
##varnar
##era
sennilega
dval
Framsóknarflokksins
vélar
##fara
skjal
gildir
jafnan
frammist
Bók
fimmta
framhjá
Ho
selt
Hans
ákveðinn
tónleika
þro
verkefna
##fá
Haukar
##halds
leikskóla
vegi
##tas
undank
undanfarið
kæra
##unga
bár
bauð
Helgason
teljum
Ol
Evrópusambandið
vinur
##freð
lei
700
ríf
algerlega
leiddi
##örygg
teljast
##ge
kol
frábært
##astjórn
##einsdóttir
bæj
virkilega
Kann
##lad
ástandið
##amaðurinn
tölvup
veitingast
hró
pabbi
##taráð
ráðast
sparis
##kvæðagreið
Suðurnesjum
svokall
aldar
skýrslunni
lögðu
ferðaþjónustu
Pat
verkfall
##ökur
Japan
tekjum
misst
Grím
##slóð
orða
kjörtíma
hagsmuni
valið
yfirgef
##fært
##smark
liður
stytt
stofnanir
landsbyggð
þjóðarat
##flutnings
hryðjuverk
Frétt
##hverfis
bændur
##jöldi
Mess
býður
##ðari
##ákvæði
##ore
samningnum
Rom
sta
ódýr
##kvæma
Alþýðu
##urt
áframhald
fjármála
kunna
menntun
sveitarstjórnar
Höfundur
Rússlandi
náttúrlega
viðmið
samþykkja
dæma
falið
Halldórsson
Lund
fjölmör
ráðist
ákaflega
væg
viðræðum
bankinn
Haraldur
Alþjóða
sonur
Hjá
Lilja
samráð
Vilhjálmur
íslenz
##sstofnun
##félagsins
##EI
##vestur
reynst
##óna
grunnskóla
Viðskipta
létu
nefndinni
##umið
strí
Þórðarson
##cia
eit
##lass
bárust
Fá
##hugs
settur
krónunnar
fjölmarg
Bæði
dýra
líða
##jóða
tvenn
##sfl
mæld
kæm
hitta
vekur
jarðar
Rafn
ríkinu
##ánæg
stöðugt
Sóknar
förum
sumum
fréttatilkynn
fundist
hlutir
missk
lín
almenna
##ías
svarað
##eftirlitið
einhverjir
##ST
kennar
Laugar
evróp
Bay
spr
hafnaði
miðvikudag
kennara
málin
##ympíu
ástæðum
myr
Rétt
Húsa
Daníel
nýrra
eyða
Hörður
Ke
fullnæg
viðskiptav
##röfu
fín
Pétursson
leikmönnum
hreins
felur
##stefnu
##apa
##brún
stigi
##lli
Willi
framhaldi
fjölbreytt
loknum
staf
dauða
##jafn
98
rekur
##ðaustur
lækkaði
Félags
íslenskt
rétti
Vel
Ástr
Gau
iðn
bland
renna
skólanum
Sc
ákveðnum
##gangi
sví
þingmanna
fræðslu
##verðs
Nýja
samningsins
1992
höfuðborg
##abar
söfn
tímabilið
húsi
Mari
látinn
verkefn
leiðandi
##bet
##int
Seðlabankans
mikils
námu
liðum
stökk
velkom
afleiðingar
##liðið
sjávarútvegs
sviðum
##slegum
nefndi
þágu
##sfell
þriðjudag
Fyrsta
##gað
Str
##stöðinni
skilyr
slegið
##ht
96
##ovic
hönnun
sla
skilningi
##ily
síðdegis
lent
##afrumvarp
##sleit
regl
hreinlega
##launin
lengst
##gjaf
kven
Varð
blá
evra
góðri
konan
##vægi
Okkur
auknum
Vestfjörðum
Baug
frumsý
mögulega
skað
##bíu
umræðunni
gjaldþrota
settar
stundir
verðbólgu
Jóhannesson
Fót
Engin
flók
Róber
##eink
lækna
##castle
Gre
Ken
lofti
##herja
forstjóra
97
##eift
Newcastle
##ræða
##tingar
metin
mjólkur
krefjast
útreik
##net
sunnudaginn
##14
FI
##þróun
ástæð
Steinar
Of
##slegu
Birna
talinn
stýri
fjmrh
Kanada
Ragnheiður
##blik
##hússins
bækur
##ttar
þver
hinir
háð
Hafnarfjarðar
aðili
mennta
krist
##hafi
sætið
sekt
lögreglunni
##alögum
varið
##íg
aukast
Bretlands
Óli
brjóta
ros
##ko
álver
annast
útboð
##ræðis
##stofan
vart
tef
borgara
fella
stórkost
segjast
Tr
landsleik
svig
##herjar
##tus
stóran
svarar
só
##skóli
mögulegt
##tinn
stjóri
þýska
##endurskoð
skel
##heil
sköp
skilgrein
Hlu
gengis
gerðir
##aröð
##læ
byggist
Ob
refsi
Gull
Ísafirði
endursk
##ea
##öndunum
móts
Þorlák
fjórir
##eiði
##ðungi
lítill
120
##sþjálf
fulltrúi
Ásm
dómara
ummæli
Lax
opinberra
framfæri
##ors
samtök
næstunni
langa
Angel
Fyrst
gerðum
##aðarins
Verður
##bro
haustið
James
ansi
##lynd
reiðu
númer
pla
Helgu
hind
##lagt
hefðum
keppa
séum
##verðlaun
feg
alþingis
aðdrag
Sigmundur
fjölgað
ferðir
##alda
##ssur
áframhaldandi
##húsnæði
neinum
dálítið
Martin
hegningarlaga
Ronald
Robert
1987
kast
##off
spurður
##ilegri
mak
##hönd
##17
ját
93
dóttir
kirkju
##valdið
afgreið
vegg
málskostnað
vetrar
##dræ
##víg
Aðspurður
##ækja
skilaði
helsta
einkar
##helgisgæ
hverja
hjúkrunar
##stiréttur
aka
ríkissjóði
##skaplega
##dí
starfar
mótmæla
hitti
öl
sauð
odd
haming
Atlant
Skúla
Ax
tó
##gerður
##alk
mótið
kveik
hjónin
rækt
##16
viti
víðtæk
##SA
##láss
sögur
áratugi
föstudaginn
Birgi
##tekjur
##estu
hross
áskor
##bragð
Stjórnar
##húss
##orði
kosta
130
Byr
afleiðingum
##vöx
##outh
Þorsteinsson
mörgu
Villa
##þekk
##bolt
ályktun
##nanna
safna
skrifstofu
gildandi
Samkeppni
hlotið
vini
Portúgal
svari
##ðustu
barnið
íbúar
umsögn
Hval
##ER
##ha
fjárveit
##by
kynferðis
kynni
treysta
##ðing
##línis
rangt
úrskurðar
hagkvæm
Ástral
lítur
stofnunarinnar
landsliðsins
yfirheyr
##öpp
kosið
##búnir
knattspyr
veiðar
tilfellum
Þórður
Lind
Leið
Alexander
danska
Bandaríkja
##veitu
Frank
frestað
Héraðsdóms
athöfn
rennur
upplýst
greind
##essu
alfarið
##gerðum
ykkar
ré
##elti
gerum
stærsti
mættu
rithöf
opið
##shús
strand
Tom
##ljómsveit
frams
Bragi
Gripið
hérlendis
##jenda
hlé
##fræðingar
Ljóst
Twitter
æsku
hæstar
sæta
nánari
nið
##aferð
landsmanna
búist
sömuleiðis
##mt
beinlínis
heimila
sjálfan
útilok
tillaga
útskrif
##berandi
94
afsök
Tómas
Vitnið
veldur
Mosfell
##ness
dómsins
##sneyti
kíló
##öflum
##van
starfsmaður
fæðingar
spurningum
skoðað
samstarfs
##björnsson
##stra
Úkra
rannsaka
hyggst
##jöfn
starfsmann
nei
ræður
##stofnun
mæla
Össur
kynnast
##aleið
##hreyf
vinnubrögð
##ino
##þegar
eflaust
##ogg
ákærðu
efnahagsl
skapi
Heild
##félags
framlög
hæfileik
Col
Reg
beggja
##kerfið
##ékk
##indast
Fljó
skrifstof
póst
##eftirlitsins
mælt
##uráð
Alþjóð
tiltölu
kílómetra
ársfjór
Smári
sil
Sw
##ting
##stæðum
nemenda
##eys
ágætlega
niðurstaðan
##naðist
neinu
Þeim
##narl
Umhverfis
kynferði
##hlé
##arins
##garð
árabil
grænna
morð
unnin
engum
suð
##lunni
heimildar
neinn
þekki
einstaklega
starfandi
##ólit
stofna
##samningi
As
aðstand
##menni
##punk
fylgdi
sameiningu
stjórnmálaflokk
##ulda
Þórs
einstaka
undanfarna
hérað
fla
tungumál
þjóðir
uppg
blaðið
mikilvægi
##ækni
##samlega
afn
tilbúinn
Álf
bjarga
Íslendingum
rauð
##hlíð
samtakanna
hinni
Milan
stuðningi
##ink
vátrygg
##ix
##anta
##ler
##afélagsins
átak
Matthías
þvert
vandræðum
heimsmeistar
tré
frambjóð
vé
Nefndin
aðdá
skylt
ástæður
Hör
##sna
ráðuneyti
netinu
##han
úrskurði
Leikurinn
ennfremur
sýnist
þáttur
ráðstafanir
tímanum
Annað
syngja
bæjarins
snið
verka
##ildum
##ótum
##bann
Hæstiréttur
mannsins
aukin
sálf
##jöri
birti
ræðum
lokinni
íbúðir
##fund
##ferðum
plötu
##ske
##önnuð
Íslandsbanka
##afer
##smik
##larnir
Sumir
##tökur
##byl
forsrh
##sölu
Gam
umfjöllunar
##ötunni
þv
gleð
##dist
Ró
##sjóð
tiltölulega
aðstæðum
kyrr
norska
Kaupþings
stöðva
fréttatilkynningu
##legrar
Ta
hvatt
##íra
##gjar
##pum
Bol
hvetja
gengu
hliðsjón
unglinga
Keflavíkurflug
kallar
##ade
þjóðaratkvæðagreið
EF
innanríkis
slas
##gentí
##be
gripið
vatni
umræður
varðv
Jú
hlutum
Bæjar
bankanum
fimmtán
##úna
stöðuna
skák
##nuðu
##mennsku
Íbúð
##gun
##líðar
##verða
reikna
92
##ólitík
sóknaraðili
Samtaka
##íma
##iggjandi
##bænum
di
fjölskyldunni
Landhelgisgæ
Emil
víg
skulum
dráttarv
Kannski
gífur
nýsköp
tillögum
##ðra
gjaldmið
svart
eth
##ylf
rannsak
skoruðu
##amynd
Rang
Baldvin
##ud
veitir
heimsótt
Ba
##sjá
Kaupmannahöfn
gátu
##heit
upphaflega
##our
stopp
komum
víðar
stoðs
Aðeins
##fangs
syn
afgrei
útlit
##búar
##skó
krafti
raunverulega
vinsæld
graf
afur
Sím
1988
leitar
fallega
Belg
Ferð
hádegi
##úra
##lei
##húsum
óháð
Nátt
margví
ker
friði
##ony
tryggði
Jónasson
lögreglumenn
##búið
nafnið
náms
völd
Eru
##vest
þingmann
##stofunnar
##amín
kleift
Bor
Ásta
jólin
Alfreð
uppli
greininni
sinnt
##stýr
jókst
tapað
ASÍ
áberandi
Leif
##raði
æfa
Lú
##ipp
##skáld
ón
##reiðslu
##sóknari
ták
fluttur
ofur
mætast
fylgst
##eini
Eur
##ulltrúa
innflyt
fjölskyldan
Mikið
skaut
Þóra
verðmæ
Róbert
##bönd
aukning
atkvæðagreið
íslenskri
eyr
##völ
##erí
##ren
1989
golf
æfing
biðja
þorsk
erlenda
hljóta
Ka
##hvert
André
ríkjum
háttsemi
##der
##ddar
tölum
samfélagi
Ri
vitnið
##aðnum
sigurinn
Bra
##reka
##blaðið
##íði
einang
svæðum
##ít
stíga
##jinn
farþega
hol
##hlutverk
##ildar
kæru
##legs
eini
##ugur
##speg
endurskoða
##smála
landsbyggðinni
##félagi
landsliðið
##aframleið
Mu
##dreg
hrepp
Mel
þrey
hrif
##búðum
kjöt
geyma
flokkurinn
foreldrum
ven
stjórnendur
slysa
##linu
##IÐ
næstum
Reykjavíkurborgar
Tryggvi
fróð
formanns
##kenna
athyglis
stefnir
##eymi
heita
Birk
##alaus
Von
Reykjavíkurborg
##sinn
heilsug
##bó
Wash
nýtingu
maki
þæg
vinir
stuðningsmenn
##meti
markmiði
keyra
Sveit
##ökul
##ábyrgð
lagðar
samhliða
deila
##eysi
saga
framundan
áfengi
##verðar
Siglu
stofnana
##próf
Ög
hæli
fjölga
##þrótt
Kóreu
Kal
##ensín
nefni
bros
##avið
Black
heill
valinn
##jörnu
##upa
innanlands
Van
Go
##arða
dregur
augu
Washington
##aðgerðir
töldu
misskil
##hen
innl
##emi
Sagði
sjómanna
þýðingu
##nandi
mömmu
ævi
uppgjör
##búnaði
sundur
Vals
kínver
##yrkja
skilning
skjó
liðnum
189
ráðherrar
þinn
Víkingur
##len
Thom
texta
Grund
lenda
Bandaríkjamenn
1940
þrýst
##OR
keppninni
viðhorf
vonir
íslenskir
bensín
hæst
##katt
##yp
##oke
Bal
manninn
Olí
bókinni
hamingju
##horn
##máli
fly
reiknað
prent
##tón
hæstaréttar
##illinn
Sjúk
##kerfinu
Cr
aðdraganda
frjáls
starfsem
##mennirnir
Elísa
drykk
Gunnlaugsson
##leit
##virkjunar
minnis
hafna
lokin
munn
##sstjóri
##atna
leiðrétt
71
áætlað
##blaði
æsk
skyni
##chen
tryggingar
##sveitir
Önnur
##firð
svefn
##ettir
Albert
##eitur
##ömm
Lau
Mour
rakið
##slitak
fjölmiðlar
lægra
rekið
##ending
undanþá
Sauð
skipið
Sigfússon
Suðurlands
##verður
##alánas
Úl
Ið
stjórna
vatns
dó
nætur
bit
##verðu
Axel
hverri
birta
Þórunn
samninginn
anda
Ástæðan
krepp
##línu
##ldi
##tust
talar
ríflega
óljó
##rænu
##búðir
Hlut
sanna
heimamenn
umsæk
Fors
bráðabirgða
##own
ská
##setningar
##sambands
##rim
##ðið
Ameríku
skera
varnaraðili
Brynd
hit
talsins
ríkir
takmörk
##reiðar
málaflokk
##slug
bik
##JA
##skál
##sly
mer
##lingu
Horn
##anak
aðstoða
##falli
Bru
##tans
##afjár
línu
Svan
##erni
efa
bön
Evrópusambandinu
málefnum
##skjör
bróður
loftslag
vinnumarkaði
aðfar
rosalega
##steinsson
##bs
Sind
Jon
sær
hópinn
át
Aftureld
svon
úttekt
##réttis
flokkur
Vinn
##kall
fólksins
trúnaðar
sýningu
##cher
tímarit
##nan
dómst
Kolb
##lingur
skjól
einasta
fermet
Liðið
gjöf
##eigendur
##jólfur
##ím
##ston
bjuggu
##naðurinn
##ninguna
Gert
Sunnu
kynntist
hverfa
ósann
Ólafsdóttir
ót
kvöldið
knattspyrnustjóri
Hæstarétti
Orri
lífsins
fræn
##huga
myndast
##eyg
##myndir
##aft
víkja
Foss
tali
##eðlabanka
beinni
hjúkrunarfræð
sjón
ingar
hlaupa
skólann
##víkingar
góðir
##pið
réttur
Carl
íbúða
hreint
ákveðna
undankeppni
Heimir
##ille
sótti
Obama
fórnarl
spill
##áttum
1980
Sama
atkvæða
framleiða
leiðbein
Guðný
afkomu
áliti
Times
slit
Hring
Reykjanesbæ
myndin
leikk
skylda
óánæg
rúmum
##bra
eitthvert
þjóðfélaginu
##veiðar
##ulltrúar
ráðinn
05
tjóni
##vörum
metið
Verði
furðu
vítaspyrnu
##lista
##öfnum
Íbúðalánas
##sfor
Ólympíu
##alau
sakna
straum
undantek
Rau
Bush
stæði
rannsókna
sólarhring
breytinga
stjórnarformaður
geim
síðastliðnum
##les
svipað
eignarhald
örfá
trúar
##akstur
Egill
forskot
vín
lífeyris
61
##nef
AF
bæti
##ráðuneytisins
##ningurinn
orði
##vísun
##bæra
fresta
Breta
##lingum
vonum
opinberum
nýjustu
fjárlögum
ly
Hjálmar
ólögmæ
tjald
Blöndu
Vestmannaeyja
tilskip
Daily
þjóðinni
##NN
##tugs
helming
##hafar
áfang
tilbúin
Skúli
körfu
Póll
Frjál
##skr
hlutabréfa
Flestir
##exík
Erla
frumkvæði
gjaf
Rich
egg
##tó
frelsi
héraði
afsökunar
Júlíu
seðlabank
Hu
Þrí
Dagur
bróðir
stjórnarflokk
##sleið
fullum
öðlast
vísb
hófust
Mót
hval
##ólmi
##olla
Bur
fyrirliði
bílum
kosningum
endurspeg
landsliðsþjálf
síld
Bayern
sögunnar
stjórnvöldum
munur
skug
##gerða
framkvæmdum
tekst
Hauka
viðurkenna
sjálfa
##liðinu
Mourinho
##stæða
##sáætl
Vikt
aftan
meiðsla
##bíó
krónu
##ion
Arion
##fisk
##arík
snúið
færð
brugðist
flugvél
##starfi
##flutningur
tísku
##ygl
Skýr
##ban
sárt
##jöllum
riðli
útflutning
karlar
Jóhanns
dýp
##ólum
##afélagið
Spar
boða
##íum
Vegagerð
spurningu
slíkra
Peter
##röð
##óða
Jóni
óskaði
viðkvæm
##stuð
stíl
##nnu
bilinu
##sgrein
skjóta
##ræðslu
tru
snýr
fundinn
milljarð
##agr
##tandi
##etta
markaðss
flokks
gefi
endanum
##örðun
##stætt
fréttastofu
forn
##stjórnin
Hildur
##slynd
vina
úrslitak
##deildinni
vinum
greiðslum
##álykt
skyldur
afhent
nýverið
húð
##ráðuneytið
satt
##ærið
löng
minning
almenningi
##ventus
góðs
þáverandi
Charl
Hollandi
##vinna
neina
ósam
Aug
fóstur
jár
Hol
fræði
slíkri
##verðum
kerfið
Logi
eldsneyti
900
##reif
eftirspurn
##AÐ
##samninga
Garðabæ
launum
##dan
viðurkennt
Hótel
Frey
lagður
útivelli
##svif
##ænt
##atur
##leiða
Lára
fjölgun
Félagið
báðar
Juventus
##rinu
meðli
Raf
sjötta
skýringar
##riðið
kölluð
##jung
##undurinn
Eiríkur
sætt
##kirkju
þjónusta
##vari
Jan
bankar
Sérstak
koll
mótt
##ningunni
augljóst
tegund
##reglur
nefnir
svoköll
lífs
Kirkju
skóg
Vor
Lo
##tækni
bóka
komnar
##valdi
fjölskylda
##mikið
##kunar
franska
##22
##bolti
þjálfara
##ærð
##ilegra
##hi
##skjálf
kynnti
VG
ýmist
##svæðisins
##ilíf
##æðar
Bolt
##onan
Austurlandi
##spek
##form
fjölmiðl
opnað
gamli
##jóti
andlit
kjarnorku
klukku
nk
skiptið
bænda
áhugi
2019
##hagsm
III
Frú
fyrirspurn
einstakra
læ
##skrár
Stundum
sli
##wood
þak
áætlanir
##gl
##óníu
reynir
sýnd
##agrein
helmingur
ork
bro
##ssi
Gest
nágrenni
##greina
on
Bún
Varðandi
skotið
óvissu
##ster
þskj
Sló
##rin
kveðja
slæmt
##svelli
##ríðar
##vog
heila
hlutinn
atvinnug
samráði
látin
Wat
Ármann
bílinn
##rófi
##eignar
Ákv
##press
kosninga
fundum
Undan
verðið
##exíkó
fjölskyldur
Glitnis
rædd
sögð
Eim
##bæk
EFTA
ákveðnar
samfélagið
##ungið
##unarf
framkvæmdar
mínar
##insdóttir
Argentí
skerð
skjálf
gáfu
ólst
##za
##beið
pían
##rétta
innflutning
Samtals
sáttur
##merki
lánveit
ýmsa
##rætt
viðfangs
sameiginlega
Straum
umsókn
Suðurlandi
##þætt
tann
leiði
##smaðurinn
Skar
fæddur
##ner
ítal
##kró
kirkjunnar
fjármálaráð
blaðinu
spáð
vöx
útgjöld
##verðið
##lausn
Hjar
##jákvæm
Landssam
Viktor
##afélög
niðri
Honum
stundu
Píra
Mer
Kópavogs
##væn
búi
opinberlega
##tanir
saum
töp
Þessu
110
##akerfi
atvinnuleysi
Ja
Hóp
reisa
afskaplega
telst
Núna
##gengni
Norðurlandi
##óknum
svonefnd
félagsmál
##ON
þjálfun
##shöf
þeg
##onur
myndina
fjölskyldum
##ago
nýlið
##als
tekjuskatt
stoðsendingar
forgangs
Blað
Eva
03
kveða
##sker
##bakka
farsí
Hlyn
dvel
gestir
afstaða
fætur
Evrópumót
Borgarf
##kó
verðbréf
gjöld
hress
##stöðvum
##nesk
Hanna
kvæn
##aðra
burt
##red
##unandi
streng
heiminn
bana
sérfræðinga
Sverrir
fátt
höfðum
Ronaldo
umdeild
##víst
gætt
##atil
einstaklingum
féllu
Króat
Ljó
##ilegan
saf
##field
##ferðir
vöxtum
Steinunn
##slögreglu
pabba
breytast
fimmtudaginn
Landspítalans
endanlega
##entu
##hafnar
tíðina
ölv
Vigdís
##stöður
sagður
nu
Eimskip
brjóst
miðn
framkvæma
átök
vallar
frammistöðu
##skatti
##hvort
Snorra
##afólks
Allar
áratugum
nýtur
##réttindi
##geirsson
eiginkonu
sveitarfélögin
##félaga
##björ
##tional
##völl
##grip
árslok
húsa
Kínver
##borið
lifandi
rau
skipulags
meðvit
umræðum
##ferða
Sigmund
##talið
afsl
rannsóknum
fynd
vikna
##bre
fást
svokallað
##íni
Þjó
salt
tapa
Bryndís
##aðilum
vorið
##blaðinu
kallaði
Guard
lek
Einhver
þitt
Spán
ástandi
efsta
fyrrnefnd
Loks
veitti
ástæðan
Sara
Þórhall
##tla
##seta
byggða
verðlauna
Mör
ramma
jafng
##öskuld
ungur
sigra
##oney
##ært
loksins
bókmenn
kn
##þórsson
mótmælt
tilgreind
sætinu
tímabundið
##búnaðar
Hvaða
Fyrirtækið
##ærri
##veiði
bjór
##búnaður
Mosfells
minnir
##ét
tilfelli
##myndin
Seðlabankinn
##rúnar
##ela
Men
##astofnun
sýningunni
fjárlaga
##ararnir
formann
pist
##reisn
markvörður
neikvæð
fjármögnun
Bjarki
málskostnaðar
forstöðumaður
neitað
Pálma
heimsins
1986
Reynir
miðborg
einstök
##júka
skál
eðlilega
Landsvirkjun
Qu
##meðferð
vextir
ársreik
Sjálfst
sérstökum
Landsbanka
heilbrigðisk
##ráðuneytinu
Gal
talsmaður
Noregs
Ívar
##leikinn
gir
Con
sof
Palestínum
Aust
höfði
press
##reglum
1974
erlendir
Rauða
Ólöf
sj
óvið
##svæðið
flytur
hinar
þriðji
##ötuna
##gin
fjarri
miðju
Kristjánsdóttir
##engd
Aðrir
##heimildir
Stokk
##tv
Snorri
Lag
sjúklinga
óhjákvæm
skapast
tilkyn
sterkari
alþ
finni
##LL
##uf
leiðarl
Eiður
Frí
gos
þrett
farþeg
##smeðferð
Gra
Skarph
bílar
Svar
kynslóð
áhorfendur
Birkir
alvarleg
kylf
##slita
ráðgjöf
foryst
##hjó
Skarphéð
sérlega
götu
##PR
nútím
eigenda
þykja
##brögðum
##ennd
Seðlabanka
Svona
aldrinum
81
sýndu
hópurinn
sögunni
tý
Rússlands
##ræðu
pott
Blá
myndlistar
fundust
So
##ega
leyst
önd
kvart
hugmyndum
framhaldsskóla
almenningur
##pr
Mor
farsæ
Kristinsson
blaðsins
##aldar
##kit
hlutina
virka
baráttunni
Sim
aukna
##eth
mánudaginn
Fyrstu
1985
háttar
##skjal
##jara
##shlut
stórið
Park
##eyk
atvikum
##ssý
##28
##gjafi
##ensen
fangelsis
jafnvægi
##ystk
umfangsmik
farnir
##IRK
Samtök
daglega
##vörur
heimsækja
snertir
framhaldinu
meirihluti
##amótinu
niðurstöðum
ferðalag
vantaði
samgöngu
Guðmundar
##óknast
##irr
Lauga
útgef
mínút
lifir
##eistaratitil
óþæg
##iskup
reyni
Nánar
útgerð
litlum
England
Blöndal
Einars
sleppa
vernda
##lýsingu
Meiri
heyrði
##stefnd
mundu
##ífi
hæfi
##sstofnunar
##vind
Þessir
útgá
##skólinn
viðsta
skemmtilega
kvikmynda
Samfylkingin
boðað
nöfn
ella
gegna
##andans
ólíklegt
##bótar
##læknir
leiðtog
mældist
veruleika
barnabörn
Öl
##che
ráðuneytisins
##örðum
þróast
lesið
##aráðs
Atla
fatlað
áfall
þingsálykt
Síðustu
##ofnanir
samningurinn
##hál
börnunum
Úkraínu
ýmsir
aukinni
##bótum
##stjórans
pláss
loknu
##eigenda
##kynhneig
##emók
hell
##slegar
hvarf
##tími
nef
þýsku
Jack
KF
sykur
fluttu
ráði
fljú
Einarsdóttir
skemmti
##löndum
auglý
neytenda
Hvort
##strönd
fest
haga
einstökum
gler
##jið
##virki
lágu
hart
kirk
hollen
Oft
##nunar
Sæm
##agan
skar
samanborið
utanr
kvóta
eitur
lánum
##agerðar
Stoke
viðsk
Skal
##ótta
fulla
löngum
sjöunda
##akist
stolið
syngur
starfsfólki
NAT
##ísil
##vet
venjulega
##alandi
svokallaða
##alíf
Ragnarsson
##gerði
las
Sjálfstfl
Bara
jepp
vík
sætta
Kefl
##gert
##ND
atvinnuleys
yfirmaður
##vera
##ustig
##þjónustunnar
Norðmenn
Brasilíu
Po
kallaður
þjá
##full
##sfyrirtæk
Eyr
stjórnarandstöð
##rúð
markinu
lögfræð
mannréttind
Ga
hegðun
rekinn
Önnu
svigrúm
lögmaður
Sjálfstæðisflokkurinn
##merk
framsóknar
samtökin
ágreiningur
neinar
##óknun
##ssv
tilraunir
##áði
Gunnars
##ox
ríkissjóð
höfðað
##reinum
konung
Þrír
orðnir
ýmissa
##anlegar
##búðar
jörðinni
tilnefnd
aðgengi
rúmar
stýra
Hand
skilorð
##ös
Ástralíu
takt
óvænt
Hallgrím
afskrif
sænska
áhætt
Íslensk
Lögregla
##óginn
uppruna
##verslun
Rek
nemi
##byggðar
Ríkiss
framleidd
mikilvægur
##ming
neitaði
su
víti
##ica
##frétt
##sambandsins
##uel
skildi
undirbúningi
slysið
##stjórar
sveitarfélaganna
Atlantshaf
##stigi
ómögu
lánsf
alvarlegt
##fræðist
##ingas
Smára
úrræði
skuldbindingar
still
borgarf
##aflug
byrjar
fengist
tæpum
sjái
Aston
##hyggju
Kos
fáir
##staðar
tilra
Eyst
Mexíkó
burtu
pólitík
Do
Þorgeir
Jose
##herrann
deilt
kt
aðspur
snúast
vafa
hópa
þjóða
aldrað
Niðurstaða
meiðsli
skipað
jákvætt
Fyrr
muninn
kví
dómur
óper
##sstarf
##kkul
bifreiðinni
fæst
fækkað
##þings
##pton
tónleikum
##félaginu
Ko
papp
vefsíðu
##vörður
##gildandi
eignum
##orp
Myndin
fíkniefn
##óði
sjávarútvegi
##íta
náðst
##ínar
Guðs
##hlutfall
allsherjar
sveita
Fann
þjóðina
hefir
fyrirtækin
þínum
tækn
##vísu
ánægð
bæinn
Magnúsdóttir
nýs
knattspyrnum
Hvers
George
hermenn
Edda
cm
djúp
kærði
Frakklands
##supp
jú
raðir
friðar
Stuð
Þrið
##ves
auga
Þýskalands
efri
##bik
samúð
##agerði
##leyfi
##inf
óheimil
staði
stúlkur
##shöfn
samtím
##jarna
bandarísku
##sd
NATO
hringt
bls
Stað
Ne
Nic
eðlis
ríkisstjórninni
gla
umsvif
##unnið
tengja
##bjargar
Kost
hálft
skelf
##svik
samúðar
sönnunar
Afganist
stöðunni
09
Hraun
dagur
héraðsdóms
haus
##tekið
##elt
##fríður
grænmeti
Pla
grunnskól
Grindavíkur
tilviki
KSÍ
##drátt
söl
manninum
evr
yfirgefa
innihald
Miðað
flestar
188
greiddi
##te
æfingar
##skvöldið
##spor
íslenskar
Sauðár
þáttum
1984
þingmönnum
##kort
þrjátíu
bæri
kyns
##rænum
tekna
gift
kaupum
##NA
samfélagsins
hugann
bæjarstjóri
Áætl
aðkomu
##td
skipuð
AC
##ker
byggi
##leikurinn
##slna
##etningu
Ríkisendurskoð
Hreiðar
##slaust
##afli
upplýsa
Söng
We
krabbamein
Sólveig
kennt
Húsavík
Útför
reist
140
misnot
sameiginlegt
##shöll
árek
##æðin
##raða
##ðulegur
AFP
skrí
höfundar
tilfinning
Gen
markahæ
bind
Grafar
Enda
leggi
útveg
##asý
vakt
sérfræðingar
##hækkun
##kveðjur
##árás
stjórnmálamenn
skír
sáu
numið
viðskiptaráð
Bretar
kvar
vitna
staðsett
binda
fugl
örorku
##ísk
##teig
þrota
##stan
hagræð
##anótt
annaðhvort
tilkynna
fulltrúum
karlmenn
skilyrðum
##ate
brotaþoli
gæði
##emókra
##25
fullkomlega
Hið
101
sala
grunni
þurftu
léku
læknir
Flokk
##alandslið
staðfesta
netið
bíllinn
glíma
##ly
einkenni
##cester
Valgerður
##bíla
##eppnin
ætíð
Los
viðeigandi
Fjöldi
ráðstefn
uppfylla
fjárlög
ofbeldis
Tra
Kolbrún
erfiðleikum
þakklát
##öryggi
Dom
laug
Mýr
tákn
##jóna
Síða
Ath
Reyni
Jer
orðalag
lögmanns
opnuð
##sveitar
Elísabet
04
Norðurland
Hörpu
Sauðárkró
fanga
Dar
líkindum
köflum
##rænt
Þur
refsingar
reynsla
trom
##ristian
##ersen
handbolta
Rak
dagar
##ofnana
einfalt
prý
sæm
blaðamaður
##gó
mynt
Den
meina
búskap
jafnréttis
fjallaði
##veik
##mingar
metnað
##sjóðs
ungt
Samkeppnis
Eyj
##eypis
prófa
Guðlaugur
ítarlega
##200
tilkynningunni
harðlega
hryðjuverka
##hæft
herbergi
hljóti
##ganga
ætlunin
##jo
gítar
McC
##völlum
##eistarar
teldi
snyr
ferðum
aldraðra
##uknattleik
Suðurnesja
margf
rug
fallegt
##ock
efast
sein
stjórnmálum
völlinn
##ugh
berast
Red
Asíu
Clin
fullyrða
fyrirspur
réttu
bær
réttum
elska
verkefninu
Ísafjarðar
08
##sbund
vissum
Fast
rokk
hörku
menningu
##srík
bóginn
kant
##sviðs
##þrótta
litlar
##brú
norð
het
fyrradag
Heildar
skoðanak
Ac
svik
tjáð
dönsku
vænta
##höllinni
Lúð
Pa
staddur
1981
Eyjólf
pass
læknar
##any
Endur
##LA
1978
##atriðum
evru
Mennta
fullnægjandi
gildist
##brigðum
greinum
##tölum
Fi
##lausu
##skyni
gólf
brauð
Breyt
Fergu
##sótt
##merkur
##kunum
greiningar
ættum
##brota
loðnu
vök
beit
##takið
atriðum
##vogi
Frumvarp
hagsmunum
##helgi
Fréttablaðið
##rukk
##látur
málefn
##kjördæmi
Ferguson
##verðir
létust
skilar
tímabund
##egg
##blöð
Leicester
##otkun
kjördæm
handteknir
nokkurs
##jörður
hádeg
##tugur
Vik
Vill
##amótum
Te
prósenta
bendi
Kær
nemendum
##srétt
##valdsins
##age
Eð
tilbúnir
##framkvæmd
þröng
augna
tegundir
klukkustund
hét
passa
heitið
##ræktar
##afélagi
##lyf
##blá
þína
##vænt
innheimtu
Síðast
##asa
athugasemdum
bragð
##sheim
Sumar
sjú
##öfum
Anton
##lýð
Fleiri
dala
Step
##snesi
##ssins
deili
gestum
##slys
Del
óeðlilegt
##rast
þættir
##eytið
##tað
Kim
##rætó
kó
hálfleiks
nýrrar
Skál
180
##hækkanir
##affi
1983
missir
##bis
##anám
##liðsins
kók
hlutur
hugsun
##tíðinni
augljóslega
##inm
áli
trúa
Hafa
##eðli
##ary
Eða
samdi
barnanna
reglugerðar
##shreyf
íbúum
Flest
stelp
##anlegur
sóttu
minnist
fjölbreyt
gæða
Nord
úrskurður
##lok
##ömb
Skil
Borgarnesi
kring
##slaus
ungu
opnar
langaði
starfshóp
##gildi
sjónum
Hitt
Stykki
afgreiða
dú
Selt
værum
bætist
peningum
##jöt
Keflavíkurflugvelli
athugasemd
fjármuni
ag
##varnir
skilur
verkinu
fjármálast
##ráða
plast
##luð
starfið
ársfjórðungi
##áðum
leyft
dæmt
Ab
Stykkish
Hulda
##ðaustan
##randi
Fylkir
Ful
mjólk
rann
athugun
opnum
Rut
smit
Sex
viðræð
miðvikudaginn
Friðriksson
teknir
búsetu
##eyrissjóð
stofnunin
sveitarfélögum
Sif
##úni
brýnt
Ní
frumkv
Þórir
Fjölnir
##ms
Gagn
fundur
##olíu
áfanga
##orld
##hreppi
fjölskyldunnar
07
##bog
andstöðu
##kröfu
##heimilinu
tonnum
markmiðum
blanda
##oðum
##höld
ákærður
útb
sami
stefnumót
bygging
ökumenn
dagskrár
dul
Sol
EB
skort
1970
atbur
erfiðara
vaxið
galla
##INN
minnkað
fél
þátta
Tindast
upplifa
aðskil
sjaldan
kynlíf
smás
##ls
náðist
sakfell
Þórar
Fjölni
##janlegt
Þórarinn
kannske
samkeppnis
06
bóndi
##átur
Mosk
##byggingu
afrek
sjálfri
gafst
föt
aukinn
##vörp
óhætt
Ros
flokknum
##EC
samkynhneig
Jes
persónulega
##ee
##erland
##regl
105
sálfræð
blöð
þjóf
Steingrím
eiganda
Com
Náttúru
##skylda
hlutafé
Skipulag
##snefndar
settu
áttunda
barnaverndar
##eypa
##23
fengju
Ým
##ugjald
hvat
jap
punk
##xem
##varna
hir
mikillar
fólkinu
##emmt
Johnson
fjárfesting
mótmæli
úrslitin
neikv
listamenn
kart
stem
Formaður
ríkissjóður
Steinn
hringdi
sambýli
ótal
ávinn
Skóla
##föll
helgar
##ningunum
umferðinni
Landspítala
veðrið
samkv
Mikill
Cl
þingmanni
##jónarmið
##stöðina
Cel
sérfræðingur
##kór
Bandaríkjafor
##vers
vísaði
hlust
##viti
Grind
grunaður
hreinu
málsá
Thomas
dómsmálaráðherra
kjörtímabil
Búnaðar
Þórdís
##greiðslur
veidd
þekkir
veikindi
kennari
##vatni
dómari
##istrygg
##herbergi
##mánuði
ókeypis
1982
felld
Mak
1979
æfingu
leikja
Gi
heimilanna
hálfa
Sóknaraðili
fleir
kun
##emen
Þýskaland
miðnætti
##lýsing
##ekjur
myndar
Kór
##jósi
vináttu
móta
arkit
##ME
##stad
hækkar
##farir
##OW
##lyndi
frásögn
sagðir
##eginum
##bandið
Reykv
##hættu
##lutning
##enger
##áðu
skell
stjórnarskrárinnar
##leifur
Guðbjörg
##oy
Erlend
##astjór
Sýrlandi
sleppt
Fylkis
viðurkenningu
##ros
þingsályktunar
samúðarkveðjur
leikhluta
gæsluvarðhald
##konan
yfirlýsingar
erfða
hófu
sr
##starfsemi
efst
hjálpað
mótsins
brúð
treysti
Cap
samfélagsmið
læknis
helmingi
þekktur
Sigurjónsson
Sir
##astofnunar
meint
Vinnu
##kor
##élum
##bundið
rödd
Íslandsmót
strik
leyni
leitaði
löggjafar
misser
##afræðingur
skjöl
leiðtoga
Bro
grundvall
##enta
stöðugleika
##inginn
log
dýrmæ
gagnrýnt
##lána
áramótin
afskipti
##sagnir
forráð
sigurmark
nokkurt
hné
##hampton
sýknu
smátt
Wa
hva
frábæra
gefinn
##esen
Atvinnu
eindreg
uppreisnar
##agnaður
systir
áhyggju
túlkun
Vi
##ric
grip
áreið
Hof
valin
Tékk
##kirkj
##þjóðar
##amun
bíður
Englands
bannað
eftirliti
##amat
veitinga
##hrun
dekk
Sparis
Mac
varaformaður
##bikar
bót
##stræti
þál
##fjörð
kallast
saksóknara
Þorvaldur
##21
##hlutverki
Óla
virkj
skólum
teig
dreifa
Böðvar
stundaði
Rannsókn
##avél
stefnenda
alþjóðlegum
Hlynur
stjórnin
áratugnum
##astjórnar
fjármagna
feril
1960
##asamtök
hækkuðu
Landsvirkjunar
##afyrirtæki
vinnuna
##fast
sterkt
mínir
##sátt
fjárlagafrumvarp
Bolton
Sunderland
möguleiki
stúdent
Bli
Seltjarnar
fullri
grín
Hauksson
Stjörnunni
HS
Ríkisútvarpsins
kraft
Sjúkra
Þín
stofnunum
Sey
160
þróa
lært
vang
##únum
##borðið
fatlaðra
dæmd
njóti
Úrslit
##stöðvarinnar
lagas
hafin
##ópa
seldi
##ædd
Varnaraðili
hæsta
Stjörnunnar
Stær
höfuðið
sendiráð
notaði
Donald
vopn
Alþfl
##ferði
##æla
##tímann
fækka
min
róm
Framsfl
heart
Rússar
virkjun
samanburðar
einlæg
setjast
##önt
leiðtogi
Ásdís
##óri
langur
Sky
fyrirfram
##neska
##ARK
tíminn
##arde
##sstjórn
miklir
skráningu
##arans
##varandi
losa
Beck
Sigurbjörn
Fulham
þroska
Ter
Hlíðar
undirstri
Brú
sauðfjár
stang
Richard
##ami
systkin
##ðulega
##andann
stolt
forðast
hernaðar
Bolungar
mal
##ble
Stjórnvöld
flokkum
kæmu
flugi
##akerfið
syni
álits
vísitalan
Fótbolta
Íran
heimilinu
Fj
##aðstoð
sagn
veðri
##har
hagsmun
Utan
settir
##eifl
##förum
verðtryggingu
Sindri
hvetur
sérstöku
Afganistan
láti
##aleig
útilokað
Mikilvæg
alþjóðlega
##öflun
Sout
ökur
##gjarnt
##jök
##sfræð
##umferð
verra
horfir
Valen
kveðju
miska
Full
kosningabar
hlutdeild
##búinn
þriðjudaginn
Austurríki
Rod
styrktar
getu
Slíkt
ósköp
breytist
##flutt
spade
VI
sextán
almannatrygg
áæt
sveitarfélagsins
##ingunum
verndar
læri
##GA
alltof
Du
notar
Wal
lærði
##ferli
##gæslu
Ney
prest
Gísladóttir
Hvíta
##skýrslu
nágrann
##ks
##mor
tonna
borin
bjartsý
##ningarnar
kerfinu
##bréfi
súkkul
##sjóði
##indin
nýjasta
úrslita
datt
mörkin
##areg
þreng
smám
hall
eignaðist
mikilla
##ritið
##jölda
IS200
súr
trúi
neytendur
pil
##valla
þrettán
Garð
PS
##vistar
Amma
ásak
tölvupóst
##nnar
Mill
bræður
##alinn
bókina
108
fordæm
götur
Gott
sérstakar
Eigin
##IRKJA
##lagan
nýir
##orlof
##hita
míns
Þóri
##krafa
sátu
##smót
Vísi
Uni
##ókna
ráðuneytið
stundað
Si
Héraðsdómi
Maríu
##slaug
sneri
##sað
##tarnir
##kva
úthlutað
##námi
kynningar
háttað
Berglind
stöndum
hádegis
stál
bankarnir
kjósenda
##líka
tæpar
stærra
##næm
rótt
##barna
umrætt
1973
verri
##anlegum
##din
Kvik
réð
körfuknattleik
Vilhjálmsson
fjöll
erlendu
líkamsá
fit
skapað
Braga
smíð
Ill
ráðstefnu
ótta
##ósti
rifja
Neyt
##sstöðu
kjúk
einföld
uppgöt
Wood
WOW
tæ
##lunum
##del
bæjarstjórnar
tóbak
1972
Angeles
##sska
##ottið
brenn
trúverð
##oktor
áhyggjum
hagvöx
Fal
óþarf
Mý
strönd
lágt
##nefnda
Daði
##yne
jarðskjálf
##amanns
Júlíus
##víkinga
stríða
sást
##jag
búum
kenndi
##asonar
vísitölu
menntamálaráðherra
ka
##ljós
sérstakan
leggjast
Williams
##setur
hringja
##ppa
Rússa
Landsbankinn
mínútna
umræðuna
##öddu
rökstu
##viði
##álit
nauðsynleg
stjórnarandstöðu
##eppninnar
skr
##yfirvalda
##hljóð
lífsg
Hafranns
Fyrri
Clinton
þrenn
markmiðið
auðveldara
Síðar
##byrjun
gætum
fresti
afhenda
##essa
níunda
Swans
##bekk
Cam
upprun
##lína
350
bakið
Vesturlandi
virða
Haraldsson
neita
##ðri
brún
Ingim
##þörf
höfuðborgarsvæðisins
##avel
plan
viðhalda
liðinn
##sskil
Finnur
takist
##björgu
svipuðum
takmarka
neðri
##eyfi
##slau
þjóðaratkvæðagreiðslu
ráðstöfun
Vol
##angt
landsliðsþjálfari
sams
##breytingu
Danmerkur
##snú
Þork
stóriðju
##konur
1975
##ingjar
skurð
Stra
stjórnmála
hentar
##éla
Mörk
Gylfa
Fax
sambandsins
sjálfbær
skipuleggja
Dögg
loforð
laust
óheimilt
##árs
fljúga
haldnir
##samningur
vinni
Eyþór
fjölskylduna
Ögmundur
banna
heilbrigðisráðherra
stjörn
##rick
Unnur
landsmenn
Rob
##einkunn
##virkni
##IS
verslanir
May
Rooney
markaðnum
##vexti
##skiptin
Wenger
##ningarf
ævintýr
Na
morgni
Jones
athugunar
Jóhönnu
skipaður
Christ
spænska
##aröðinni
gæsluvarðhaldi
pú
bæjarstjórn
##aleigu
saknað
ákvörðunar
##rúmsl
##RA
Kring
##staf
banki
kannast
##angi
##ux
##slögreglustjóra
##tuga
sigurvegar
Lúðvík
Harry
##hjól
eiginkona
stakk
##rausti
olli
ráðningar
fullv
létta
gul
##dráttur
Egyp
Swansea
hlutafjár
##boðum
##skapur
##nand
1976
opnun
Eið
Ferr
dómstóla
skipan
heilbrigðisþjónustu
##akeppni
Björnsdóttir
viðskiptal
atvinnugrein
klukkustundir
##jöldin
fjórtán
metrar
Alltaf
NBA
nágranna
##ðirnar
Bjart
##stímabil
mælist
Þrá
##æðast
Rós
##orth
##mn
vopna
sjútv
skaðabóta
fað
##ömmum
sækir
afkom
gjalda
spark
ertu
Snær
##hætt
Ólympíuleik
Arna
##slist
opinn
##unt
leggjum
ráðherrann
Spurður
Sýningin
Southampton
stjórnsý
norsku
##leikann
##andanum
sannað
endurgreiðslu
fellt
##grunn
hálku
byss
háa
innri
##hópi
skrið
samstöðu
##vaxta
þættinum
##störfum
Ry
Helgadóttir
Ásgeirsson
hlaupið
falleg
Höskuld
##xl
sjónvarpsstöð
Landspítalanum
##ssa
kjarasamninga
umsjón
Hál
mörkuðum
verjanda
efnið
Auður
lak
raunin
##komin
Pers
hráefni
##afrv
borgarstjóri
toga
diam
##slegri
Berlín
velkomnir
Pálmi
blogg
##endingum
bæjarf
App
dóma
Björgunar
Sy
pól
##tillögu
kan
##kan
sakarkost
fylk
miðla
##ff
einna
býsna
##sey
klúbb
##ask
##odd
skall
hagnaður
IS199
flokkar
búð
rætur
sjálfstætt
hinnar
slíkur
##afé
Express
gömlum
##jam
##shæ
125
##árá
Fylki
bíll
styrki
tækifærið
þátttakendur
auglýst
Stefan
fíkniefni
##stofunni
01
nútíma
Árnadóttir
ætluðu
Lárus
ýta
útgáf
##ridge
Mjög
##sambandið
##jaði
##ilipp
mennirnir
##ugleika
verst
skýrsla
íslenskan
Danir
Jónssonar
undar
Met
##ósi
væntingar
taug
Töl
##banki
Erling
heilsugæslu
flú
##arétt
##hef
per
nefnist
##bandalagsins
##ðinn
glög
Ren
Norðurlöndunum
##verkum
halla
verksins
hálka
samningavið
sveif
##sstaða
Aldrei
##frey
##eiðar
þola
veig
##dalsh
ómögulegt
klukkutíma
##drott
##tunar
listanum
gall
##kennara
forsetak
Antoni
Landhelgisgæslunnar
umtalsvert
gefst
##eppnina
Nem
##efa
býst
sparisjóð
##málaráðherra
Guðna
##via
##réttur
óhag
##eyta
lífsh
##göngum
Sun
úrvalsdeildarinnar
einkamála
fjarlægð
##ening
fry
klass
Tónlistar
jó
##ykst
spara
103
stefnendur
Slökk
dómurinn
klubs
velti
Fjarða
Finnlandi
##fyrir
forvit
skili
##wich
erfð
þýðingar
sérstakur
háv
##ríði
stórar
algengt
Húna
pakk
lúta
Reyndar
ríkisfjár
elsk
undanúrslitum
samgönguráð
##hljómsveit
Gunnlaugur
##punkti
óum
##eistur
myndarinnar
popp
Rakel
##eistaratitilinn
kjósendur
sigrinum
treyst
áhugavert
frost
##vélar
##standandi
Héraðsdómur
##laði
Konan
myndirnar
Bak
##ean
##ssel
##sonar
kaupin
innih
eykst
framherji
Ágústsson
##smanni
felast
fran
forsend
djú
báða
Inst
##valds
lengd
##samtök
flm
##tók
Þorger
Karen
##barn
gangandi
hugsaði
##gjafa
hlutafélag
ánægðir
greiðsludags
##byrði
##lausa
fryst
##tunum
##skona
hagsmunir
gatn
aukningu
festa
##litt
##yri
efnahagslíf
lítinn
##ingarnir
##ektar
sögðust
persón
##sskyld
ávöx
yfirg
launak
Víkur
aflað
##imp
##örum
##sskóla
Sérstaklega
Saga
Knatt
##búin
allavega
skugga
Mont
1971
samsvar
FC
núgildandi
ótrúlegt
lamb
##teg
gesti
fjármunum
keppendur
##fari
Belgíu
snúist
##veð
##naðinn
##brautar
flóð
##cht
##dýra
vaxa
ábendingar
##áttunni
##kröfur
farar
sjálfstæð
notaður
endurheim
Kvað
##aldast
fjárhagslega
Ali
samanburði
minnar
##sögum
ír
##stöðin
Ráðherra
##aupp
ánægjulegt
reyndu
losun
##lausir
##ssp
upplifun
Erna
lítra
Ingólfur
##okka
einkavæð
##lögð
##setja
blasir
Sjónvarp
112
##ÍS
Telur
Hvar
forsetinn
##ugerð
##fylgjandi
færu
Ísraels
stofnaði
hverfi
borði
miðar
Hveragerði
endurskoðunar
##sstyr
gra
málsmeðferð
109
hátíðinni
##breyttu
dánar
sjónvarpsþ
einstaklingur
afmælis
borgina
Eyjum
Ven
stjórnskip
hámarki
meðhönd
möguleikar
höfn
Ass
skuldum
Pú
jök
##sfer
##blaðsins
##firðinga
ríkissak
upptöku
úthlutun
útlendinga
duga
drukk
stúlku
tilvil
Gold
mag
Jökul
fylla
##mars
##ingastofnun
hark
Wil
vafi
##réttind
þrisvar
FL
útsendingu
Ungver
sekúndu
##stofnunar
útsk
Hjörtur
Haarde
æskilegt
kerfis
stækka
Pe
##jer
##jurnar
##afulltrúi
áskorun
einkunn
##AND
tilfinningar
opnaði
HB
Hjartar
##hóli
##lest
##iff
verslunum
tiltekið
ályk
fjárfestingu
##jalli
Tryggva
aðildarrík
##vott
æv
##still
skildu
útfær
farþegar
Alþjóðagjald
veiðig
##tugsaldri
##sj
skattlag
taldir
##rausta
##alán
ítreka
##áfrý
stjórnenda
Rás
Ríkisstjórnin
skyndilega
Elvar
tíunda
atvinnuveg
rými
Halla
##tis
dra
Fis
fylgdist
##mrn
makríl
skrý
húsm
##eip
Sólrún
##jalda
##ydd
blaðamenn
kva
Kú
leitast
matvæla
##24
##eskaup
##arfull
##bba
versta
##sfjarðar
fluttir
##afell
hafist
tíðum
ind
Markmiðið
Daniel
bjargað
##ilsins
sprengju
##róður
fasteignas
andrúmsl
virkar
Skallag
Megin
##jót
##söm
##sviði
##amörk
vestra
##epú
##æðra
ból
blekk
##ice
##aflokksins
taf
##þrey
freg
Úrval
sterka
##önskum
##sloka
Bár
sameina
þakklæti
World
You
##irkja
síðasti
bréfinu
rökum
rekin
##tugt
Rósa
##ire
Matvæ
disk
greiddar
leikslok
pip
Söl
Mü
##rauk
Kjartansson
ástar
stigið
Dóra
Hálf
Versl
##liðar
synd
umhverfisráðherra
##tli
sjómenn
strey
##ile
ráðum
leyfis
stól
Rún
bræð
greiðir
samstaða
tilheyrandi
##öls
hræð
ungum
##aranum
tvennt
##efndar
ógild
rauða
##arfélagið
##agerðarinnar
kæ
##alista
##álag
öruggt
Elías
ætlast
sveitinni
##búum
lýðveld
Norðurlöndum
náðum
##endinga
##liggjandi
Im
Rannsóknar
hættur
##húsa
pre
Hvor
Skaft
bresku
Mosfellsbæ
Sov
##sel
félaganna
Valencia
virðulegi
mikilvæga
þyrftu
sterkur
##kenni
Nik
teljist
stand
athaf
útskýrir
sjónvarps
##astöðum
##sáætlun
##way
geisl
Spánar
samanlagt
vinnuveit
Samt
uppsagnar
Ferrari
HÍ
eyðileg
fí
kvót
Dýr
bandalag
Karlsson
Siglufirði
Evrópska
po
##ösku
##are
##ikk
skilgreind
dætur
##önum
veruleg
##öru
Sömu
##söng
##tr
óvissa
Róm
ben
kvöldsins
sjónarmiðum
forsetakos
##hlutinn
tilteknum
##völlur
marks
Agnar
##lúbb
##aðgerð
deildina
mánuðir
GR
##embætt
##andamál
heimilum
##atölur
Loft
körfubolta
sambúð
Katrí
blaðamannafundi
##ero
réttlæti
langtíma
Set
yfirstandandi
ítalska
tök
ákváðu
Lauf
ST
Unn
orsak
innanríkisráðherra
berst
##osti
þörfum
##illu
##ilegir
finnist
##burn
##ise
##tari
Messi
bikark
lausnir
átján
drekka
grunur
Ásmundur
1968
Stefánsdóttir
vörð
stækkun
sagan
talist
##wen
##þjálfari
Hor
spjall
handrit
Lagt
##tín
sumarbú
Green
leikmaðurinn
uppfyllt
Birgisson
iðulega
##ekja
Ingólfsson
hlí
varp
Fjármálaeftirlitið
Heilbrigði
járn
##rautar
fugla
ríkjanna
##tíðin
sveig
##jóðurinn
170
##sög
##ubíl
utanrrh
héraðsdómi
hliðina
skorar
bjarg
##30
eftirlits
þekkjum
Lúxem
Moskvu
hluthaf
Oddur
skipum
fyrirmyndar
Oddsson
borgarstjórnar
efasem
Svíþjóðar
Tak
##26
##rönd
##morgun
næði
vatnið
dóminn
##brag
báru
stuðningur
GK
Þorskur
##afólki
brúðkaup
slóðum
framvegis
Fréttablaðinu
##alegum
##breyting
##býlishús
sumrin
fjöru
ótt
lifað
veturinn
Roma
þýða
tilnef
veginum
barist
Óskarsson
meiddist
##ence
##deilt
Don
lögfest
boltinn
Teng
Engu
tölul
tilbúið
Harpa
Ker
réttindum
slíkan
vitnesk
##riða
##manninn
afsal
##ystra
flesta
spurningin
fótbol
##vig
barns
myndlist
byrjuðu
Cor
hópsins
forsenda
##þyng
aðfaranótt
##que
eldhús
forsvarsmenn
ágætt
meistara
viðureign
birtingu
##skipa
réttlæ
Fannar
heiðar
minnkaði
sand
ökumaður
##jöku
##önsk
ávarp
##vörð
1955
kynferðisbrot
áhöfn
vefnum
áverka
þinni
app
varamaður
kosningunum
jafnrétti
##drætti
ótví
##fundur
sænsku
##ova
Holly
##MA
##nuður
dökk
##ight
horfið
vinsæla
Henry
fyrirlest
mælir
##ldum
stjörnu
hluthafa
Englend
fjárl
losna
silfur
102
##aframkvæmd
óskil
##rán
Sögu
sjúkraf
heimspek
Lars
##amóta
dagsett
Ram
örlítið
toppi
Sveinbjörn
Pakist
##stefnanda
##jölskyld
##ráðuneyti
dregist
kostaði
aðferðir
104
eytt
Lou
##fet
kommú
Antonio
Kast
misjafn
##sjóður
Rit
Meistaradeildinni
breytir
Stofn
Lyf
air
fremstu
dreifingu
Færeyjum
ex
Guðnason
Eyja
prins
Isa
Eyjólfur
Ellið
##runum
##ástand
bug
##afng
##varðar
útflutnings
herberg
vímu
1958
##lags
##alegu
##steyp
gag
Pírata
gærmorgun
fiskveiði
Þið
Stöðvar
dráttarvöxtum
söguna
líkama
Pól
kasta
1967
##ganisti
hníf
##aldra
fjármálafyrirtæki
##afund
stundar
efnislega
sakar
væng
Stokkhól
Vic
##iger
Sauðárkróki
Lundúnum
##óru
erfiða
Ríkisútvarpið
doktor
kjörinn
leiðrétta
Þróttur
ás
##minja
notaðar
sjúkling
Der
by
##hjálp
Vonandi
einelti
skorið
íslenskrar
##rita
ógn
Sjálfstæðisflokks
Davíðs
velt
ökutæk
##verji
klst
##ynni
fiskvinnslu
Card
Kolbeinn
keppninnar
ofangreind
##ísku
##úm
meiðsl
leiðarljósi
##EF
Hill
##ogið
bundið
##félögum
Bakk
felist
Sak
fyrirtækjanna
nauðsynlegar
##boðið
Hallgrímsson
Guðbjar
##deildarinnar
veröld
Svart
samtaka
##áðs
Gengi
sumri
músl
túlka
ungir
Evrópuk
ÍS
feð
gyð
tra
síðastliðið
viðskiptavina
vísbendingar
Sovét
gagnrýna
snar
reksturinn
bólu
titilinn
##vísitalan
óhepp
##blettir
einlitt
BS
Kenn
áherslur
##umálum
sendingu
##50
Starfsmenn
formanni
sakir
1977
afnema
##fyrirtækja
verðlaunin
herinn
látnir
##ssvæði
Rússland
##sjúkra
Íslensku
fjölgaði
Neytend
Hafrannsóknast
sérkenn
hættir
umferðarlaga
auðl
Óttar
flokkanna
kynnst
Interna
##EFA
tapi
deiliskipulag
fyrrgreind
Vesturlands
##jörnum
plön
dal
bókin
Smith
1950
##alof
hagnaði
fordæmi
tryggð
bréfa
vikunnar
krafðist
rým
hljóp
War
##vestan
Búið
Vop
óvíst
lánssam
##ningarnir
##höfum
##ading
uppbyggingar
##asp
##aldi
staðfestir
UM
auglýsingar
flóttamanna
ho
Bost
hádeginu
þykk
106
kvæntur
birtar
##liki
þvo
innkaup
stoltur
rýr
Guardian
##leikarnir
frönsku
tókum
##ofb
jafnaðar
drott
##steins
Hefði
##slá
##járauk
##enu
drag
##aráðuneytið
##nslu
##sy
##cy
vegur
Star
árásar
kla
eldf
velferð
LÍ
Háskólans
Fyrsti
ax
##igan
húsn
Roy
svokölluðu
Fjármálaeftirlitsins
Frjálslynd
Fjárfest
Virðulegur
giftist
Ágú
htt
auðvelda
kaupm
##bbi
##lækni
Joh
Fulltrúar
finnur
##háttar
jörðina
matsgerð
Útl
nefndir
Reykjaness
sendiherra
heitt
lágmarki
leiðum
Toy
grundvallarat
1961
orðaður
hau
##samnings
stýrði
##hætti
Slóven
lánt
Slökkvilið
##ungum
ráðuneytinu
##eislu
Sigfús
æði
##fylg
Brussel
##auta
þekkti
##mán
margs
gras
##astarfsemi
Takk
##samningum
##slurnar
vonbrigðum
Pan
harm
##slegan
Niðurstöður
Bill
ríkisstjórnina
##þætti
##spá
naum
##bifreið
1966
varlega
Páls
engir
húsnæðis
Bandaríkjamanna
bifreiðar
Húsið
##burða
lagar
Kh
##ron
Færey
##felld
hækki
hálfan
Jafnvel
Bá
merkilegt
365
vert
sendur
pappír
UN
##málið
erlendri
##ský
orlof
##íó
framhaldið
Mamma
fæti
Póllandi
##reins
hent
##írt
evrur
inná
Boston
höldum
sjóðnum
##sala
##ING
##napp
dreift
##legustu
##arann
kvöldi
viðskiptaráðherra
IS198
millil
sekur
bei
hersins
##ath
##þoli
##báta
##umhverfi
endurgreið
##kostnaður
skaðabót
Oli
Reykjanesbæjar
pund
##búi
Egilsstöðum
þolinm
kný
ríkjandi
hríð
UEFA
styrkt
Tilkynn
##janlega
starfsfólks
forsetans
Síðasta
1959
þrosk
##flokki
##sæti
##ækt
##adóm
skoti
##gögn
yfirskrift
Orð
stutta
##ystkini
Palace
eilíf
él
viðskiptavinum
hlær
erfiðar
##íður
fullyrt
##æki
vitanlega
Vegagerðarinnar
##herji
Þátt
Ur
Skúlason
Rann
smærri
veltu
viðunandi
minningu
fata
Reik
barni
Sigurðarson
listans
kjörtímabili
Mest
Bandaríkjadal
skipinu
##icros
fjórðung
umsóknir
Reyðar
þekkta
##fundar
rað
Þjóðleik
Ly
aðlög
Sigurðardóttur
##ouse
sakbor
187
smjör
##sskip
tilkynningar
drepa
íslensks
Me
augun
##læknis
Hit
1963
húmor
eystra
sekúndur
lýtur
heildina
sundlaug
kennarar
##akerfinu
rökstuð
helsti
áfrýjanda
Áf
skorti
viðurkenndi
##öfnun
svæðisins
##örðu
tim
LS
pólitíska
Vissu
1969
Hrönn
Kárahn
AG
##gjöld
innbrot
vandi
hæstaréttardóm
umsagnar
Arnarson
nóttina
Orkuveit
álí
kröfuhafa
rjó
##viðskipti
glæ
rót
##ída
Kennar
Nám
leigja
##brigðis
grundvöllur
kannabis
leikskól
##íasson
##mikil
Meira
Sigga
##vallar
eignuðust
áratuga
##kumál
umræðan
Sverrisson
##iforn
Upphaf
Hjalta
viðfangsefni
1964
fínt
gegnt
Margar
##icrosoft
Hollywood
verkalýðshreyf
Áslaug
Les
##flokksins
##æja
grim
fimmtíu
yfirvalda
viðurkennir
Ákvæði
almennu
gamalt
misserum
##mætt
eftirminn
##einum
Frakkland
##tekt
Helstu
Golf
fæðingarorlof
##vegur
Kevin
beinum
##hátíðar
##vín
##res
framtíðina
Brown
##epúblik
fréttavef
hill
oddviti
heiti
fátækt
feli
sjónvarpi
Innan
Haukum
verkefnisins
Grímsson
Kiel
##oðið
##oc
##verðmæti
Stund
Blackburn
aðhald
Vestfjarða
framhaldsskól
þokk
##verðlauna
1962
1965
atvikið
##veginn
bylt
vildum
##skoti
greiddu
msk
##tekjum
munurinn
##sleyfi
vinsælda
bönkunum
##nam
tímabært
Vef
dvalar
athyglisvert
##TT
Nó
Kaliforn
yfirlit
##byggingar
##DA
bikarm
höfuðborginni
smekk
auknu
keppt
fyrirtækis
seldur
##inganna
Vísind
Merk
##jana
Sr
sérhæf
Fel
##onu
bókum
sekúndum
Jarð
Fernand
##unnur
umhverfisáhrif
birtast
##ue
##gju
sofa
##álið
reiði
heimamanna
spænsku
##ytt
manneskja
tækja
bókhald
leikjunum
##eds
##stóll
eykur
##ruðum
VR
##íski
umhugs
gegndi
115
embættismenn
lofað
hátíðarinnar
kostum
áhugamál
einbeita
##astarf
##shlu
deilur
fótbolt
sjálfstæðismanna
Vissulega
höfða
fermetra
gól
Bess
ritstjóri
Bent
eg
vinkonu
skortur
##eing
sjóðurinn
##hópur
##koman
##eldu
##sfræði
sambandið
Ragnhildur
kynningu
Úlfar
##úla
Óskars
búnað
fallast
lánsfjár
Ki
fangels
Dort
##atrygg
Tyrklandi
##sland
Lýð
finnast
Bag
Landsbankanum
##bát
staður
##tustu
Nokkur
Þórarinsson
húsum
atvinnulífinu
heimsstyr
tilboði
fjárhæðir
dvöl
##ská
##stöðva
Björns
ómet
úrvalsdeildar
##wa
keppin
reikninga
óný
##lagið
##þykk
Mörg
vegfar
##jendum
##tog
##igur
Frakkar
hælisleit
Talsmaður
##undsson
##mingham
Brot
Undanfar
Hallgrímur
Bolungarvík
##ugar
##anar
##ótak
##ego
nýsköpunar
##anirnar
Sjö
Bjarnadóttir
fagnar
víðast
atkvæðagreiðslu
afli
tímabilsins
gjaldþrot
ungra
bankahrun
hringinn
líðan
Iðn
Keil
107
Will
##brand
fjárhags
Ólafsvík
##leikari
starfinu
deyja
Run
1956
svarið
þingmanns
óþekk
##UM
Níger
Írlandi
Max
fylgdu
##verðan
ágreining
Engar
Henni
nyt
##íki
##samur
hvatti
framar
##sambandi
##stefnandi
##íðum
kartöf
##dísi
##aðgerðum
Med
endurtek
##astur
flókið
augnablik
##ets
flugvöll
Leng
##kað
skipulagi
##hers
1944
##ærin
Lof
##afull
veiðum
Fjölskyld
Lögreglu
International
##orgi
Utd
Reading
safnað
##ölsku
merkingu
fékkst
hverjar
Sjálfur
##skúr
gesta
rúma
hlað
Tex
dram
Ökum
stofu
Bör
sannfærður
refsing
Litla
biskup
fæðu
þingkos
##abygg
barnsins
ýmiss
grg
héraðsdómari
undanþágu
Leifur
##hlutans
alþjóðlegu
##lífi
##slegur
##dómur
glugga
bókarinnar
##stær
Bel
pólitísk
þéttbýli
framsal
Dortmund
undirritaður
##eignir
stöðvar
##aleyfi
styður
ljósm
##unkt
##víu
Lew
töpuðu
Saman
##ral
Birmingham
Eiríksson
##aðstöðu
##60
Marc
##atriðið
ágætis
samskipta
Mon
Næst
þungt
framúr
hvaðan
viðskiptavini
Styr
##arfyrirtæk
vaxt
færslu
Burn
ríkisborgar
1954
gjaldeyri
##ect
gildistöku
hafðir
hittast
snjall
Steven
##dómum
sérstaks
##töldum
##LE
ráðgjafar
virðisaukaskatti
dregin
Þjóðverjar
##sdal
mættust
##þjónustan
höfundur
##leði
lánið
útrý
bat
endurgjald
##ifr
##stétt
stofnuð
##sigur
refsingu
Mikilvægt
SV
##ome
Vod
andlega
stjórnarinnar
Móðir
##unark
tímapunkti
tilkynning
##isst
Jóhannsdóttir
##frjál
samver
taldar
hraðar
byrjunarliði
ríkislögreglustjóra
rækilega
fullan
kvöldin
##deginum
ræktun
munar
##vn
stytta
titil
glað
samtal
óvæn
##úmer
##snám
##con
Búist
framið
átökum
Hellis
staðfestingar
slysadeild
fið
##amennsku
ágæta
##LI
fallin
nafninu
lögregluna
Rauð
spari
erfiður
Rúm
lýsingu
saut
kærða
höggi
héðan
Júlíusson
óskum
dvelja
Nap
hlutabréfum
smíða
Lak
##ygló
auðveldlega
síldar
##ava
sýninguna
hrunið
sigla
IV
##gjörð
Dalvík
##ital
heilbr
mótor
bílsins
##afone
Hinrik
ráðstöfunar
kynsló
landsframleiðslu
skipsins
Knattspyrnu
slátur
##ese
heimsótti
sterku
fylgist
mælikv
Hrafnhildur
Steinþór
Eygló
einstakt
##sstað
Fjórir
##sfirði
##sagnar
alþingismaður
Mün
þrá
þre
##kkan
2020
tíðkast
setningu
safnast
Bókin
Mur
stúlkan
riðlinum
##þjónustunni
undirskrif
Efna
##den
skamms
björ
afborg
greiningu
skaðabætur
þræ
Þjór
##jóðum
þekkingar
vonbrigði
vísindamenn
fjölmörg
Voru
Gaz
hleyp
##engið
sport
funda
röksem
Magnúsar
##sgjald
Toyota
Yo
##slán
##öttum
atvinnum
Old
hæfilega
fjármagni
leikhús
Steve
##verkið
hreinsa
##ilegustu
útskýra
re
Fréttablaðsins
steyp
röðum
þökk
Baugs
sérstakri
Soff
Gróttu
##eis
mengun
þjóna
Niðurstaðan
endar
fækkun
götum
hiti
té
##ónus
##jökli
##part
Brag
umferðir
lífeyrissjóða
##svík
keyptu
fatl
vinnunni
frú
þen
##astað
##ura
einhverri
##arfélags
Hek
unglingar
kipp
sjávarútvegsráðherra
ungmenna
Lúxemborg
umboðsmaður
##dæma
áðurnefnd
skyldum
Vél
Rúmen
sambærileg
lögfræði
amfet
óljóst
##fanga
deildin
Linda
Chris
grill
tilviljun
Jac
##rásar
keppnina
stjórnarskránni
Segja
Stu
Reut
færði
Andrés
ræðust
##we
##hrepps
##gangurinn
##nasonar
öryrkja
umgengni
##agram
bekknum
##mannsins
umhverfið
félögin
Jakobsdóttir
samfélags
páska
mælst
brun
##rael
blönd
treg
árangurs
Blönduósi
gjalddaga
atburðar
##lögin
FIFA
framboði
##IK
miðjumaður
##sæi
Jör
gefist
Mývatn
Ungverjal
##abbi
einhliða
##skoðun
##kraf
utanríkismál
stjórnarandstöðunnar
##lausnar
Holland
hugarf
Vodafone
MS
garði
##rich
N1
Atlantshafs
##verjum
þjónar
almennar
##rad
Íris
búsett
hálfs
báta
##kerfisins
##róðir
##bjarnar
fjölmörgum
hik
Guðrúnu
höll
Líkt
##asafni
ráðsins
##hraun
##hafs
Noregur
krafta
miðast
maka
##áðir
vinkona
##EA
reglna
misseri
##lie
##rafa
gol
Ragna
íslenskur
fyllilega
Samfylkingar
fjárfestinga
rautt
skipaði
lýstu
##helm
Fljót
Kaliforníu
Landss
fjarlægja
drög
##rekstur
Þorlákshöfn
##breytingum
stjórnun
sendu
Halldórs
##öndin
samhljó
##lipp
##sfélaga
##heiminum
Hilmarsson
náist
##öðv
Gall
þúsundir
##zlu
loftið
útlanda
viðtalinu
##afélaginu
##strinum
skattgreið
frál
prósentum
skjá
Ott
hagný
She
borgarstjóra
Kam
##alyf
leikhlé
íslam
eiginfjár
##cial
svipuð
aðstandendur
dæ
áhrifa
Tvö
gífurlega
frels
##ove
auglýsa
München
æfinga
prósentustig
Péturs
rífa
pall
hlutfallslega
Póst
##skapar
reynum
##jungur
##aliði
Framsóknarflokkurinn
bruna
##öss
##agl
##atöku
##oz
ferðamönnum
##ogba
Min
##visku
Portsm
##eitu
hrós
Þorgerður
##bakk
##ced
Ólafi
Hiti
fagnaði
##ents
Trausti
vitnað
hugmyndin
hlýju
eyði
##drif
Stre
þínu
##ekju
hrl
andlitið
##ugi
sveitarinnar
##vant
Tók
innleið
arf
endurskipulag
##tryggingar
Forsætis
upplifað
Lán
ólíkt
brotin
Post
sendum
slapp
Portsmouth
gas
ha
##klúbb
##skerfi
eldra
Stefndu
skemmtilegur
Listahá
skýrslur
Adam
##ellu
ríkisskatt
landbúnaðarráðherra
bíó
leikina
ku
verðlags
##fice
kjörum
varir
vitnis
Jen
höndunum
Úrskur
látist
McL
Króatíu
Midd
ytra
gefast
aldurs
ákveður
##amóti
Margt
Menningar
Dómur
kveðjum
skapar
Gauta
##het
þunga
##síðu
meiddur
LA
slyssins
innheimta
plata
stilla
##igi
kjarna
##nur
##ageym
Ork
##aney
uppboð
Sambands
##fug
birg
neitar
##hvarf
varað
##stöðuna
Glitni
##ninn
113
433
##eðferðar
##andic
Skagafirði
ungmenni
borgin
##ófer
útlöndum
Ru
þrot
##amarkað
vænti
tvívegis
grann
Hermannsson
Hamar
sameinast
##ægur
byggjast
##fit
jöf
Flór
##olli
sjálfstraust
Granda
##göngur
styrkur
##erson
áramótum
1957
afgreitt
Skrá
##arfrí
##lausum
Jónsdóttur
Afturelding
##blástur
Till
regla
framburði
skólag
flot
##hrif
##vopn
##arkostnaður
Þorvaldsson
eigendum
höfuðstól
Beckham
Guðrúnar
goð
flokkinn
hjóla
##ossi
ábyr
##slóðir
náið
1000
Messa
##ugir
toppnum
##yti
##hygg
##rými
eldg
drep
afnot
þingfest
##herberg
##iskos
safnaðar
Nokkrir
fiskveiðist
Stykkishólmi
Stephen
stú
Kristjáns
##efnis
réttilega
borgarstjórn
meðfylgjandi
Harðardóttir
tónleikar
##ory
brugðið
kafli
deginum
ríkisútvarp
svörum
umhyggju
stöðvað
sveitarstjór
eiginmaður
##harð
efnahagsmálum
góðra
málatil
##gunar
tíðar
ósátt
Örygg
##alí
##önnuður
##annsins
Cardiff
ófull
aðspurður
##bel
endurnýjun
kass
##eni
skemmtist
Birnu
árá
stimp
leiddu
gisti
Halldórsdóttir
íbúðinni
viðmiðunar
##orðum
auglýsing
riðill
skerða
svekk
##ússonar
##otta
löggjaf
Laun
verðbólga
bókun
þáltill
##svegar
álita
Hljómsveit
No
vandlega
sóma
jafnvirði
Nas
ljóða
samþykktar
Vegagerðin
##leiknum
##xd
##infóníu
hugsanlegt
Argentínu
matvöru
hönnunar
Matthíasson
Alþjóðagjaldeyrissjóð
detta
##agný
Þjálf
##bækur
hreyfingu
skemmdir
Olís
Efnahag
Tvær
##lifandi
stýrt
lund
sýr
##aflut
##asamtaka
erind
skilgreina
fjárlaganefndar
Álftan
magni
kirkjunni
hálfleiknum
##árum
##aðu
hrak
##ræðið
ævintýri
klipp
##arfram
##akter
dæmdi
sáttir
kosningarnar
##kostnað
220
Reuters
skiptingu
víðs
vakna
virkja
stúlka
fagnað
##erðir
vitneskju
##27
fjárfestar
##landa
Sigurðssonar
##skírt
lækkuðu
lögfræðingur
markaðinn
varnarmaður
dau
yfirborð
##ECD
Lion
##afélaga
sölum
##samstarf
Víði
##000
##orðið
mánuðinum
OECD
fagnaðar
Erik
stúdentsp
##markmið
##varf
##sskýr
Lithá
fir
Suð
##ello
fluttist
##meiri
fleirum
Fa
eldur
##svæðum
afnám
Fri
##otu
MA
bundin
##launum
Bos
##ninganna
Matvælast
hækkandi
Jós
Björgvinsson
núv
hækkunar
Framleið
##slaga
##smíð
Phil
athöfnin
Faðir
Flat
hólmi
íhuga
Egyptal
sviptur
aðstæð
vefsíð
áhyggjuefni
Hringbraut
Wolf
##amótin
spennu
kor
félagsmenn
##staður
rólega
loftslags
Ætl
lifði
Trausta
##ameistari
##mögn
farsíma
Klu
myndskeið
Victor
Ash
lu
lækkunar
viðhor
hvíld
miðja
sönnun
nágrannal
Dí
dæmið
skoðunum
##skort
spiluðu
##hópurinn
Guðmundi
lítillega
##legast
##LD
##spreng
flugeld
##him
##sskoð
heimaleik
grafa
stöddu
Kap
óbreyttu
hvít
staðfestur
##boga
##ze
##ofnunum
stödd
yfirlýsing
flugvélar
heilt
gæð
##JÓ
skrifstofust
##TV
hlutirnir
horfði
pipar
skarð
fyrstur
leiti
Þorsteinsdóttir
gagnrýndi
Band
Stóra
sýndur
líkamsárás
Háskólann
gátum
##sköpun
##tún
íhug
sjúkdóma
##jórinn
##unefndar
##raph
Jar
reynist
org
slitast
fyrirmæli
##agjöf
vægi
Neskaup
rof
konunnar
brást
árásinni
bankann
auknar
minnkandi
##viðs
##íla
##málin
##issur
þorp
Aðalsteinn
##prófi
veiti
##dl
1947
Hagnaður
skólinn
Fin
Barn
Grunn
freist
afurða
breytti
Eyjamenn
tugi
Jens
hugar
Halldóra
erfiðleika
verulegu
fyrirhugað
úrlausn
Valsmenn
ósammála
hópar
heilbrigðisst
liðunum
heyrir
umræddum
dugleg
knýja
hlakka
klárlega
SÍ
Skarphéðinsson
fórst
##allið
##stór
sérstöðu
þúsunda
Konráð
##böndum
Burnley
byl
Celtic
köll
hjónaband
fundarins
##villa
álíka
##naðir
þref
ógley
##aren
##jalar
tsk
kostað
##rís
ætluðum
Lý
Meg
verksmiðju
strákarnir
Kristófer
tilver
Tónlist
##alegar
##eygja
veislu
dómstólum
veikinda
háar
Tryggv
##streng
Frum
umhugsunar
##ole
óskar
líkams
Chic
##óleik
Þorsteins
1952
áhugasam
##argæslu
karlmaður
kind
hagfræði
Sandgerði
þjóðerni
##iðnaðar
húfi
hvíla
Schum
vinstra
meistari
landsk
##gerandi
Sturlu
Hrein
##angar
Afi
##sstjóra
ráðin
1945
##áhug
fjvn
Stefnt
félagsska
rithöfundur
Mail
##hu
Sverrisdóttir
skalla
##sstöðvar
verkin
píanó
flutningi
kald
##do
##rák
dæmdir
dýrt
tár
##elsson
fréttinni
hæfileika
Au
súkkulaði
Malm
skráningar
verr
bikarnum
virtust
drengur
Palestínumanna
laginu
1936
náum
Samband
##jann
part
##endurnir
endurtaka
eindregið
vex
Skuld
Pálsdóttir
aðalmeðferð
Dagný
##hljóðandi
eignarhlut
dettur
go
##nana
rannsakað
varan
Bull
verktak
Hákon
juk
Ragnars
greinilegt
##sskrá
Mjól
##svein
notast
fæðingu
vélinni
1953
íhald
##varn
Ingimar
Norðaustur
1949
trjá
##SS
ísrael
ásök
tengt
##réttinda
skynsamlegt
Sturla
##hópa
Christian
kynntar
##reiðslur
##atí
þóknun
##bergsson
rússneska
Ævar
Instagram
ummælum
##afurða
mótum
hæstu
Eigandi
framfyl
íbúðum
Byggðast
ara
heilu
útsvar
##færð
Just
Þessa
##hlutum
Athygli
tónleikunum
flugvallar
Ása
##hlið
##dans
hittumst
##jarf
felldur
reyndust
endalaust
Vopn
Lyk
svohljóðandi
Íslandsmeistari
Íþrótta
ákváðum
henda
lítt
vörslu
Norðurlands
lóðar
##ínur
##kominn
skömmum
frábærlega
##oth
hraun
Eggertsson
##ninum
nýsköpun
tjóns
Mannréttind
vond
Stúl
##endanna
tækjum
Liðin
##izt
Búl
1951
Persónu
félagsmanna
##byss
SH
Bergmann
Gary
##sundi
færir
##skattur
geymslu
örfáum
1948
Kvaðst
lýsi
Indlandi
látum
##ystal
lón
skipi
séra
Sigurði
##yðja
##alest
sökk
rat
íbúðarhúsnæði
útgáfa
þyrlu
##bundin
Valdimarsson
klæð
málflutningi
##bæri
##ya
rækta
mannréttinda
Hluta
##ision
sárs
##dagar
innvið
afmark
Jónína
Fljóts
ká
##sbóta
hugur
sjást
bandarísk
Leit
inter
Grundarf
##ifélag
skrey
fiskur
Finnbog
ráðamenn
nýst
Cham
verðbréfa
##skyn
##dagurinn
Akraness
uppeldis
birtir
borðinu
landbúnað
##cent
atvinnulífið
listamann
fárán
gestirnir
02
Aja
bandarískum
Scott
lentu
leiðina
##xe
samruna
ríkari
ætluð
Skotlandi
hátí
Guðmundssonar
##spar
Lee
erlendar
##hæfa
##slæk
mús
Jackson
450
Getur
rekstrinum
vítateig
##mögu
##port
megum
áttir
Leeds
##ben
liðar
skíða
##skipið
Watford
fyrrv
##veginum
Krafa
menntunar
##YR
129
tónskáld
1946
fögn
ferðina
miðbæ
ýtt
Kárahnjúka
##ögun
fjárfram
slös
##ákær
##skostnaður
Hóla
stefnumótun
Tæp
flutninga
nálæg
jarðarinnar
afgerandi
##ide
##aflóa
ungs
##sfélög
hækkanir
kör
mo
Aðalsteinsson
eyðil
##skirkja
##tækt
Samherja
##aw
Cra
framfærslu
Skor
sjálfstæðismenn
sögum
viðtöl
sjálfboð
tilrauna
Skóg
aust
aacute
##sorð
sýknaður
jöfnunar
##tímabil
borgarar
##55
##ninginn
##borgara
milljarði
landslag
##rika
tor
hneyk
frænda
Gunnari
##gil
Ætli
Pabbi
sæl
öflugt
mótmælir
róttæk
Breiðabliks
##úa
##snes
áranna
Sigurgeir
notendur
Hjalti
Es
áskil
útaf
peningar
Jósef
fullnustu
ban
Skó
Tony
Listasafn
##ætta
Eina
Kla
##gv
##agarð
gróðurhús
Hvert
horfi
fyrirkomulagi
##kennari
##dam
Gissur
æfingum
aðstoðarmaður
steik
stuðningsmanna
Snæfellsnesi
dragi
sýndar
Kaupþingi
##staði
Ped
##helg
Skel
ólíkum
sveitarfélagið
Alþb
##jafa
Oddný
##ungi
Báðir
snerta
##pen
Norðurlanda
##anninn
staðreyndir
Harðarson
gagnrýnir
horfum
hvoru
inniheldur
ósáttur
##fin
hlutu
##hæfur
AP
Sigtrygg
Gjald
dottið
beðnir
##eisturum
fim
einbeitt
Crystal
kalt
Verið
Apple
vö
demókra
##gs
##tilegar
félagslega
Ak
Ennfremur
viðbragð
manneskju
ákvæða
Umræ
innlán
ársbyrjun
##sbók
Pétursdóttir
auglýsinga
Vigf
Sóley
frændi
sveitarstjórn
hörð
Víkverji
orðnar
Fab
gegnir
##ward
samanst
Ægir
Íbúar
##renn
Stefáns
Isavia
sest
##ýsingu
útfærslu
vafalaust
Eyjólfsson
##ningja
gefnar
##alegur
##öskun
Brad
sjúkrahúsi
frumsýnd
Andrea
##eftirlitinu
Jónssyni
stofnaður
Sovétrík
holu
Hold
annarrar
aðstæðna
jörðu
skú
##þróunar
blind
spenna
##isa
aðferðum
Aðspurð
fyrirliggjandi
Snæfells
lífskjör
##bux
##leiðir
alvarlegum
stjórnarflokkanna
##asyni
##ettu
##kuld
þjóðarbú
Jóla
Hvol
##álk
Ásb
hægra
##aráðuneytisins
flestra
##allas
Áhug
erfiðum
stress
stýrir
plötunni
mikilvægu
##vanda
hey
Svíar
##fréttum
þraut
##veldi
endurhæf
hálend
Pl
ákvörðunum
Tölu
gríðarleg
Bretland
Mennirnir
fjörutíu
hæfni
haldist
##alds
fjölmargir
fyrirsjá
systkinin
fiskim
fróðlegt
umsóknar
##eitanlega
bága
bönkum
ávöxtun
hjör
almennilega
urðum
þyki
hert
vísi
mengunar
Borgarfirði
innra
##pan
Umhverfisstofnun
leiðinlegt
breytingarnar
Filipp
Lett
Atleti
upptök
einangrun
fótum
systkina
skilst
Leikmenn
Bænd
hesta
Arng
skoðuð
ávana
##iblí
Jord
leikrit
ræðustól
Minni
starfsh
Rúnarsson
ófá
karakter
sólarhr
stórir
##boða
snjófl
Wayne
##eind
fórnarlömb
##eli
##köll
vöxt
Wigan
Andra
Vatna
##john
Cle
varðveita
borgað
framkomu
##drykk
##lögreglu
samvisku
vikurnar
Ford
##turnar
innilega
lam
##sburg
William
ríkisstjór
##leikanum
glæsileg
kra
##ati
sáum
##syni
andvirði
breidd
frænka
##issk
bjartsýnn
vaxtar
gil
##araþ
Strand
krydd
aðalfundi
ferlinum
##mælin
##KUR
##arfélagsins
Baldursson
BA
settum
dýrari
##ranna
Valdís
##áta
Atletico
##ótek
##árið
Sann
stuttum
ofs
##vígi
##óðum
ja
tilgangur
áminn
##kaupa
##aleysi
Konur
##seð
Lækjar
skógar
byggði
breyttist
tún
##MS
##þjónustuna
sjóinn
fár
Laugardalshöll
tölt
könnuninni
##áætlunar
spítalans
##túni
framlengingu
Guðfinn
blóði
##styrk
flýta
ór
Bern
blóma
heiman
óhjákvæmilegt
Símans
slát
atvinnuleysis
svoleiðis
##ssveit
þjóðirnar
##bankans
órétt
Mis
Bless
##johnsen
##sleysi
##móti
landbúnaði
##brauta
ríkt
spítala
##hú
nægja
hlustað
spjalla
mannkyn
Kaffi
miðjunni
Selfyss
dvaldi
Kristínu
boðin
kap
Ýr
sautján
tiltekna
næsti
afþrey
##redit
kóka
samgönguráðherra
Héð
Orkuveitu
rísa
samrý
afhendingu
##verslunar
Marel
Icelandic
End
##riti
stoppa
Stokkhólmi
meðfram
lækkar
sért
ráðun
##öller
þýddi
hálfleikinn
Frakka
þjóðhag
Nd
Áætlað
andví
BM
undirritað
aðstaða
##fræðinga
Svand
sanng
##veiðum
Chicago
heimilið
teikni
Næsta
fjölgar
stemm
Nýr
fjölmenn
tillögunni
Fólkið
fáist
##ngur
Íbúðalánasjóðs
##ást
sen
styrkir
þarfir
##sverð
##stjóranum
renni
knú
framboðs
stafar
skilningur
sýslumanns
750
Mirr
Juli
ób
pakka
alvarlegar
augn
##sin
sakaður
Breiðabliki
##EL
Grótta
fulln
Kemur
##janleg
hdl
Hugs
##pers
forsætisráð
Hjördís
gestur
Tækni
flogið
berum
Garðarsson
krónan
forráðamenn
Ska
##afmæli
kjarasamningum
##bandalagið
King
réttinda
##shn
##þekja
minntist
leikstjórn
dóminum
einir
Fótbolti
##II
##liðum
innbyr
##skrifstofu
Whit
Okkar
Sunna
skemmta
viðtalið
göt
##mis
tvöfalt
##vegum
##onso
Breska
##margir
fyrirvar
ch
111
nauðung
Hópurinn
arkitekt
náttúrunni
Ajax
rannsókninni
Laufey
skuldara
frænku
##acher
sjaldgæ
Ley
hleypa
þjóðum
landsleiki
suðvestur
##inson
Dana
##amennirnir
reikninginn
uppbygging
saksóknari
flugvellinum
viðskiptavinir
heyri
##leitni
fjárveitingar
##orka
bótak
snyrti
##arkaði
kól
lægi
##eiranum
du
dróst
menntmrh
##raðir
áheyr
##virkja
hljómsveitin
húsleit
stigahæ
Keflvíkingar
Mirror
dap
##emí
spurð
##þyr
sveitarfélaginu
##notkun
##jónin
mannanna
##ies
veist
frsm
lagg
Ákveð
##agga
tíðindi
Heiða
ungmenn
hvattir
##ddum
##borði
Ríkisendurskoðun
fregnir
viðskiptan
##BI
##ach
##kastið
prófkjör
##yfirlýsingu
fjármálafyrirtækja
Víking
##útgáfu
##slögum
Grikklandi
prófi
undirbúningur
##kla
Hy
Sjál
speg
Maked
nefndum
Valgeir
Bet
##afnið
ut
virðisaukaskatts
##efnt
hyg
Dow
##33
settist
dómar
auglýsingu
Íra
##eb
##rænna
co
hefjist
Sigurbjörnsson
hugleið
málsvarnar
NA
lokun
listamanna
##40
áhorfenda
gjaldskrá
hálkublettir
bolta
fullnægt
síðunni
Reykjanesbraut
gerðinni
búsettur
116
##arger
##ogle
##gangs
hótað
skiptist
útiloka
landbúnaðarins
##ingjum
Kjartans
Heilbrigðis
##ráðið
##eff
deilu
könn
Kjör
stundina
héldum
lúx
Jór
Friðjón
línur
innflutningi
framkvæmdastjórn
Vo
Guðjohnsen
hlaupi
Fiskist
Vignir
sviðinu
nánustu
##asjóð
ríkissaksóknara
##akerfisins
##engja
hlynn
##ningnum
borinn
Sjóv
Kveð
heimilað
einkahlut
markviss
##viðri
##dad
skygg
##óstur
runnið
##smiður
amer
leikari
fjárlagafrv
Middles
Sandra
Rf
##arfélaga
with
skiptin
þakklátur
sannfærandi
Wales
vélin
hlutar
Egilsson
belg
##deildin
hur
færður
##uðs
smella
stíf
upptek
##AÐUR
framleiðendur
Systkini
Steind
##fla
Hafsteinn
Bergþór
kvíða
Street
Hre
staðhæf
mannréttindi
úl
il
##amanni
bjartsýni
bifreiða
##pla
Pen
Eli
Pútín
herma
beyg
standast
Só
sinnti
setji
skiptast
greinarinnar
þökkum
Ákvörðun
eiturlyf
Nes
##afjörð
##luna
##ugg
samverust
Rannveig
##nasta
Aðrar
##hví
##heimildum
leiðbeiningar
opinberri
fólksb
nýtingar
guðs
Bárðar
nít
Stig
fluttar
viðstaddur
Staða
sjónvarpinu
##heiðar
##ristiano
Reykjavíkurflug
samræmis
Helena
Rad
bætast
málsl
##yrkju
rigning
erfiðu
##öryggis
íþróttum
Vinnumál
Kraf
samgöngur
heyrnar
Cru
##arnar
ómerk
Eist
færey
kært
aukaspyrnu
útbreiðslu
##hátt
margoft
bílskúr
##skilyrði
Nick
Börnin
leikara
atburð
##rard
Björgólfur
vinnumarkaðarins
##ault
bændum
slasaðist
##kostnaði
##hæfir
flóknar
þjálfa
OR
Danmörk
skemmri
Ríki
Miami
##sing
##heimilda
notum
einkarek
Víf
stöng
algjört
sætum
felli
##hópnum
http
Wol
vins
##infóníuhljómsveit
skráðir
Dæmi
skipstjóri
Farið
konurnar
nýtist
so
burðar
keð
##lausar
réttl
hrik
Yfirvöld
McLaren
fjórðu
stjórnunar
salnum
merkja
fyrirheit
pólitískum
Barack
uppsögn
##pakk
##verksmiðju
##vísa
Landssambands
##ölunnar
tölvupósti
##gri
##burðum
##tímum
##listarf
ánni
hausinn
##verðlaunin
Ký
endurbætur
landsvæði
gamlar
kallaðir
##oo
einfalda
iðnaðarráðherra
henta
Netinu
bókmennta
smíði
##tteg
##heimum
ser
##dals
##eu
##engun
notaðir
Samningurinn
viðamik
afslátt
viðurkenningar
dja
framleitt
##reiðslum
stelpur
grundvöll
Hvann
##bænda
stjórnað
##elle
Skömmu
breyttu
News
aukinnar
Sjávar
félmrh
##vextir
brjósti
##iðnaði
##je
##saga
skýrist
félagsleg
efasemdir
##akaup
útgjöldum
##yfirvöldum
Markús
opinberar
Hró
hóps
Kristinsdóttir
Kvikmynd
Gerrard
Merced
##ölunni
Víkingi
óskir
##luðum
fundu
þreytt
##manninum
Lill
skemmtilegar
kynjanna
##pró
óneitanlega
Höfn
Erf
Wall
##skiptingu
skart
Tómasson
Lil
hverfinu
málefna
##astaða
síðastliðin
Bíl
##sky
afhenti
1930
varpa
##reynd
Ýsa
sumarbústað
farveg
æfingaleik
##ugum
miðri
fasteignar
Þjóðar
Höfða
verðmæta
hlutað
álf
brjál
Pre
kynja
Gla
##afsl
##baráttu
hunda
##ráðsins
Kostnaður
Middlesbro
tryggir
kvarta
##slaun
stjórninni
skraut
göngum
##stil
Ljósmynd
##amótið
samdráttur
Pass
bata
Ræk
sessi
Son
Luis
##skipum
##skrúð
rán
stórauk
þátttaka
tilkomu
Indi
##svirkj
##rauta
árásir
skjólstæð
##70
gæfu
##smálin
Reyn
##ij
135
##ód
##þinginu
Moham
ótíma
##firðingar
##bótak
##lus
inngöngu
hagnað
umsjónar
bili
Lífeyriss
Vísir
Jordan
ölvunar
hindra
sitji
hý
vaxtal
Cristiano
sigurmarkið
kviknaði
##örðurinn
fegur
laggirnar
Tinna
unnum
##asv
Joe
fórnarlamb
fastur
##legasta
hefðbundnum
umboðsmanns
staðfestingu
ráðuneyt
nefndur
klæða
HA
Samtökin
heilsufar
##tækif
Kjarn
lánast
Ísak
þyngd
árangurinn
Þvert
Lárusson
dyrum
veigamik
iacute
takk
allrar
bragði
ríkti
Jóhannesdóttir
Yng
##marsson
##ilda
virt
##43
##sýningu
##heimi
föst
skrefið
kvör
##ofbeldi
##byggja
##ærir
undanfarnar
##okið
frysti
kjördæmi
138
vikuna
Rúmlega
rangar
##kunn
átaka
Vog
fjárauk
skýringu
Louis
minnihluta
vinnustað
Góð
fylgd
bux
##breytinga
Fór
aðgangur
Jona
lögreglumanna
##efnin
##gefið
stærðar
##fjall
Hugmyndin
stofnunar
snert
dómnum
SK
dísil
markaður
Víðir
Fag
office
Drott
aðalhlutverk
innrétt
leggst
föstum
##ðst
##luðu
hljóðar
jólag
stofnfjár
##stefnda
##IC
málflutning
Kvenna
þjálfar
Möller
##ífa
munaði
leikvang
embættið
frumvarps
Ala
vinsælu
##ates
##angri
##fjöll
##íþrótt
lyfjum
jákvæða
skuldabréfa
forsjá
Þorstein
heimamönnum
tort
##aradís
kröfugerð
Alla
krafan
Gúst
eðlilegum
vog
##brotum
barátta
Katar
##liðinn
Höskuldur
Útlend
Þver
##fólks
sakfelldur
líklegast
lokaumferð
Bandaríkjaforseti
##asátt
##lurnar
##áliti
elda
##hlutanum
kvótak
##afurðir
##linn
skýrði
notkunar
tungu
Lad
fsp
##gandi
færist
samk
Hita
##eigna
slitið
##akost
fyrram
sungið
Gylf
bandarískra
söngvar
Flórída
Teleg
frumkvöð
gráðu
Skessu
117
flýja
Taí
##rannsóknar
fræða
slaginn
##asöm
spjaldið
##ileika
lagarök
FME
##hý
Alonso
##san
##ora
skipar
Björt
##elja
kvartað
rektor
Lögreglum
votta
ódýrari
Ster
einhverra
Björgv
skotum
fiskveiða
mikilvægum
meðákær
fermingar
hlutunum
útskrifaðist
Grand
##fólki
##eista
minningarnar
##ilton
styttri
námið
Thorodd
neysluverðs
snerist
trufl
færast
Hólmfríður
óhapp
Laz
Bandaríska
kærumál
frjálsum
verðskuld
Fernando
útvega
210
sterkar
ritað
Blair
##nirnar
misskilningur
##minjasafn
Sævarsson
Nat
Hull
rjú
valinu
alþjóðasam
##jöti
óánægju
ösku
stofnuninni
horfur
Rangár
skiptum
mikilvægasta
##okkur
Mercedes
Camp
framleiðsla
hrygg
Gústaf
innlendum
fyrramálið
Smár
lánað
líkamlega
##igh
Carlos
fjárlaganefnd
##gerðin
deildum
jökul
drif
Finnbogason
happ
tæpa
fyrrakvöld
minnkar
##bílar
##bíll
Útvarp
verz
##eppi
Gallu
slíkir
##rífa
that
##svarsmenn
máta
Áfram
##nunni
harða
240
lendir
öruggan
sjálfboðalið
tilgrein
##þátta
##tá
Pakistan
ákvæðið
líði
Seðlabankanum
Thoroddsen
Vísis
Gil
rusl
steig
Vax
##dyr
##svör
##ellir
samfélagsmiðlum
aðalskipulag
##hlí
vitaskuld
verulegar
hræddur
eldhúsinu
Pri
Stutt
framangreindu
ólíkindum
##girni
skapandi
##ale
##herrum
Leiknir
Baldvinsson
##börnum
líti
frumvörp
##orent
Stefnda
þingsal
Birgitta
##ammar
Víkings
samhljóða
framleiðir
Kong
lengja
Nánari
Woods
##strey
framlengja
##ish
vandræð
gróf
Terry
Lö
##lana
Frsm
Google
##þro
spenntur
Sala
SPR
skúr
##fist
##mörkum
##erg
undirstrika
bæjarstjóra
berja
mæð
slak
vindur
##sýning
##aráðuneyti
Hvalfjarðar
Þorbjörn
viðvör
sjálfkrafa
##ml
Akranes
##bæru
Hvamm
Dagskrá
staðsetningu
Bragason
fína
námsmanna
virðingar
Unnið
félagsmálaráðherra
sanngjarnt
Verkefnið
IM
Hansen
##inger
þakkir
djúpt
Áhorf
##bært
##rýst
Sevilla
Fjölmið
Ku
samtökum
Mín
##furt
hópum
##östur
##skemm
hreyfa
##áttan
skráður
sumarfrí
þurftum
Margréti
mælingar
Soffía
niðurskurð
gæðum
##íðar
kaupverð
Pi
ofarlega
tilheyra
miðborginni
þrotabú
Spánn
Byl
un
hálftíma
greiddur
##lýsinga
Haft
##frelsi
##estum
tapið
Ingvarsson
lung
spiluðum
hang
heilsugæ
rækju
andlát
kaupir
##fyrirtækið
Serbíu
##astofu
Spreng
móttöku
SF
port
nafng
Landeyja
##jallara
##rænni
##leikjum
##mörg
söknuði
##alind
staðist
grunninn
Svandís
lita
elsta
fullur
hausti
hissa
##29
forræði
safnið
spáir
hollenska
##mans
Bog
tækju
takmarkað
Bas
fagur
##ráðum
einsk
opnunar
##emar
##þekkingu
sviss
fyrirsögn
tá
merkjum
Bakka
sjóði
athafna
##þrif
æðstu
hló
blaðs
inga
garðinum
saka
sakamála
konunni
ættingja
Umboð
þrý
hugmyndafræði
Middlesbrough
kvaddi
##áher
##fylgd
Not
selur
frábæran
SPRON
skipulagt
##UN
flaug
##irkjan
rakin
##komna
töluverð
atburðarás
##mati
##sagt
frjó
launin
dómarar
Upplýsingar
dýrum
##TS
##kvóta
Haga
fjármunir
ásakanir
lögreglustjóra
nett
Seb
##aron
##íkur
On
kannað
Íslandsmet
Traf
##pe
uppáhald
ljúki
samþykktu
##flokkurinn
Seyðis
kýr
##nak
móð
símann
fley
114
gál
skattar
mel
flaut
þok
sveifl
ferm
##SKA
stúlkunnar
millig
##mari
##ræmi
samninganefnd
Kristínar
hálfum
ráðgjafi
##bréfum
yfirvöldum
metinn
sósí
Gauti
Seinni
##þjónn
versluninni
markaðurinn
Stuðning
ævinlega
Unnar
árásum
##here
kaupi
bréfum
safnsins
##anninum
ferðalög
skömm
##naðinum
akk
skýrar
almennri
##ingastofnunar
Siggi
##horni
##zz
##ange
lánshæ
sigling
Öx
bifreiðarinnar
jukust
undantekningar
þráð
Hverfis
##ginn
stræti
handtók
##ammi
ám
Hæf
yl
Fjarðabyggð
##ement
Elsa
afrak
afhen
##settu
lofa
veir
bren
Patrek
Hreiðarsson
fallegu
aðgerðar
##afæri
dýralæk
ri
kommúni
krefjandi
##rekk
ráðningu
##leifsson
málverk
Diego
bundinn
Seyðisfirði
##vellinum
Grænlandi
##atvik
misstu
gjörsamlega
Eyjafjarðar
ga
hagkvæmni
lyfjaf
vonar
ákveðnu
##yra
lögheimili
klæ
ókunn
opinberu
##erkja
Mæ
endurnýja
##grundv
##oud
Ryan
##stofuna
konuna
##viðskiptum
skortir
umrædda
Torf
Karls
Eurov
Guðbrand
##sveita
##arfer
Sigríðar
talsverð
svokölluðum
Öryggis
Ólafssonar
##ddist
##hepp
Telegraph
##vita
##agreiðslur
Hönnu
bakk
Hák
118
##asamt
Borgarleik
búning
lab
dómsorði
vangavel
##ball
##veita
Þjóðverja
borðum
Bónus
##ure
Coll
rapp
frjálst
tyrk
stuðningsmönnum
Gum
skipun
þjónustuna
##vísitölu
vanskil
búnaði
How
##gangast
spillingu
##iley
stöðvaði
SÞ
hæstaréttarlög
##sliðið
GA
##ðunar
Sagan
uns
stjórnandi
##gn
Tryggingastofnun
sveigjan
sveitin
Rock
##xc
stokk
Charlton
lífshættu
Ket
nálgun
framvind
æft
Ástæða
##ráðu
Orkust
sakaði
##jallar
samtímis
##okum
ræddu
mismunun
Besta
##jumst
innleiða
Hjörvar
nýtast
Kald
ömur
Sly
Fjó
Brynja
##blönd
uppsetningu
yfirstjórn
teknu
Forsætisráðherra
lesendur
sjúkr
játaði
Búlgar
golfi
fjarskip
Pálmason
sveitir
leiðar
##ðingum
Lakers
henti
Einstak
stigin
ær
##efninu
##tíminn
skólastjóri
##gio
Alan
##coa
Samú
Schumacher
gengistrygg
ólíkar
##lán
Helguvík
réðust
þarft
##burðir
heppin
trausti
þvotta
##BS
leiðsögn
laugard
##sveitin
þunglyndi
Jean
slíks
ört
##hóf
leyndar
Varamenn
##can
##dómi
listaverk
gætir
Þriðja
kýs
kaþ
stillt
Tindastóll
##65
reynslan
samkomulagið
hlutaðeigandi
tortrygg
##chi
##skunni
krakkarnir
hátíðina
fjölbreytni
ferðaþjónustunnar
bensí
##aðið
hurð
áhrifin
kvikmyndir
matvæl
framherja
hleypt
aðilinn
efnt
##aflokkur
##skurn
hörðum
sonar
##vettvang
##tækjum
aðildarvið
önn
Steindór
Ólafía
##háskóla
undansk
Sveins
Malmö
Njarðvíkur
##sskoðun
farnar
vinning
álagningu
þrif
##fjárfest
##ette
klám
Vlad
strætó
##sljós
Verkamann
##iola
Hrefna
vönd
borðið
Carr
##skurð
##banni
##fallið
fangageym
sterkum
VÍS
hjú
Rannsóknir
hun
PSG
tegundum
##arleyfi
gjaldtöku
yfirveg
ákvarð
##áls
lífsst
Þyr
##árdal
öfg
lagðir
Veið
viðleitni
ríkisvaldið
fegurð
efnahagssv
##alegri
ræði
gervi
##alín
samkeppnish
Eftirlit
plötur
alþingiskos
##ráðandi
##resti
stjórnendum
##vía
##leysis
Agnes
##bús
verulegum
verslunarmanna
Veit
##xf
Strætó
innflytjenda
greiðsla
dræ
Bang
morguninn
##eron
##ónes
##eman
múr
geisla
tiltekin
krakkar
##þegi
ráðstafað
uppgötv
##úður
Press
uppbótar
##greiðsla
vanræk
##RB
Hljómsveitin
ljósmyndir
þiggja
##sbundið
nutu
vátryggingar
skaðabótalaga
Get
skrýtið
ei
kveikt
afnum
jafnræði
fullviss
Hamilton
ítölsku
##númer
126
hljómsveitinni
öfl
pólitískt
hend
beitti
Ósló
dómtekið
hönnuð
pör
brenna
brotum
##magni
##reint
Almen
verðbólg
vetri
upplýsingafulltrúi
Theod
atvinnulífi
Hart
are
hróp
kló
landshluta
##atækni
skrú
veitingar
##ny
milljarður
Rætt
þakkar
##lis
skjóli
##afjölda
Cole
sýningin
búnar
Sýrlands
##stundir
##sbraut
virkan
vagn
fyrirmælum
hvíta
145
landsliðsmaður
skipuleg
leikmanni
Hafn
iðnaðarins
hrædd
kennir
ræddum
##sveitum
fróðleik
rass
Sports
Klopp
##leigu
Gren
Frumvarpið
yfirtöku
matur
árásina
skattal
viðskiptin
##aráðuneytinu
dugði
##reikningi
langfl
##IT
##mo
fyrirbæri
Tekið
##samtaka
skert
##uðsyn
borgum
##hreyfingarinnar
fullyrðingar
fjárfestingum
lægsta
orðað
Öllum
230
sess
færum
##ákvörðun
Kas
tímamót
fjarskipta
vörninni
##SM
umsagnir
##munur
tengdar
##kvað
Margrétar
##ferðin
þingflokksfor
Eyrar
Hagstofunnar
loftinu
fóður
markaðsv
mm
úrbætur
borgarfulltrúi
175
Nýju
Reyðarfirði
fingur
nas
Skól
öxl
þekking
verjast
Heimamenn
gaum
lausu
þorski
háum
##starfið
hljóðfær
Björgólf
Deil
##bach
##shrepp
hljómsveitarinnar
##menntun
Norræna
##sjónar
Sjálfstæðisflokknum
ull
ársfjórðung
viðurkennd
##reinda
tilfinningu
##marit
Kýpur
##veri
Jök
##sfélagi
tafar
##arfjár
heyrist
flótta
##yrða
slökkva
hnot
stöður
##vaxtar
grunaðir
##lenska
margvísleg
hyggjast
skipaðs
##skila
voða
hluthafar
Dani
Seltjarnarnesi
upphæðir
ang
fylgjandi
skilgreint
##sveg
virkni
stjórnmálamanna
you
Ferða
##kass
Breiðholti
Leó
brag
beinu
Hrafnk
biður
##ækkanir
##höfundur
viðskn
þriðjungur
Verkið
Íslandsbanki
öfugt
áskrif
eiginmanni
áttað
##félögin
##kjöri
Frankfurt
aðstandendum
hugtak
stelpurnar
##ameðferð
atvinnust
et
Fró
nauðsynlega
Eurovision
Rögn
ákvæðinu
sýningarinnar
nótum
1942
njós
hjálpaði
aum
##yle
einnar
lýðræðis
mótmælum
fjarskipt
tolla
##sögur
veikindum
tl
Alcoa
##ÖR
sprakk
tilskipun
þjóðgarð
fjármagnst
dráttarvaxta
hnotskurn
breitt
kveðinn
tengdum
Lewis
##elson
Margeir
Vet
markvisst
Klukkan
farg
Líklega
Nær
útrás
Hannesson
Síldar
##iga
##sic
landanna
hjartan
jarðhita
tefla
##ater
Dem
##breytta
Wolves
Hreyf
##amáli
starfsleyfi
##arson
samanburð
einstaklings
Guðjónsdóttir
##ison
hljómar
kræ
##KK
lagasetningu
##hildi
dómsm
áreit
##fimi
himin
komumst
Nýtt
venjulegum
fermetrar
fjármálum
##slysi
Fjármál
fækkaði
áformum
stefnan
stærðfræði
##lögu
Eddu
Myndir
Can
##my
##akó
Eric
vandamálið
##östu
Athug
eldi
fjölmargar
slíta
Brand
##shafi
##ná
Sigríði
kjörin
##vakt
bindandi
QPR
hlutfalli
Gamla
Tíu
Hornafirði
Herdís
Mjólkur
kíkja
##reglan
umhverfisáhrifum
Pek
kaupunum
##jöð
fengust
##olas
landbr
Bláa
##sis
##stofur
greip
State
##shá
mótaröðinni
fersk
blaði
bænd
##afurðum
##ystir
nýtti
meiðslum
Brynjólf
123
##ain
reykja
##þol
jarðveg
Cla
ytri
Sinfóníuhljómsveit
Tú
hjúkrunarfræðinga
##oto
Domin
##róma
ofar
Sebasti
##slima
##tjón
mannvirki
Arabíu
félagslið
Alexand
skólar
##ats
norðaustan
framgöngu
##nie
flæk
##real
My
Samhliða
Bíllinn
Neskaupstað
Golden
sjúklingar
Bil
##skostnað
##stefna
##smun
minnti
metnaðarfull
Vatnsm
millir
lærdóm
##ofandi
##stödd
##ektir
##pí
stefni
forgangsröð
gróðurhúsalof
##beiðni
Íraks
áróður
Átta
hagvöxtur
##ori
Dis
Mah
rútu
virtu
Hvenær
Lilju
Rh
jafngildir
breytingartill
##fyll
Sadd
##manum
##cis
##bítur
standist
mættur
Byrjunar
ásökunum
##etti
Þingmenn
bygginga
dýpstu
BH
##ennslu
grænt
skella
Höll
##sund
Háskólanum
náttúruverndar
##æfi
##smorgun
Ásbjörn
nauðungars
þinglýst
##bændur
þáttunum
##óttir
Parísar
##aliðið
##md
Meistaradeildarinnar
Hafþór
Spil
leyfir
Barnaverndar
Hluti
svokölluð
##atnaði
varstu
velgengni
##úlu
Almenn
lakari
gangast
siðferði
skyr
##ose
Luk
veittur
Grænlands
botni
tilmælum
seldar
Andersen
draumur
##þóra
endurgrei
Hvorki
##nasyni
lykt
##vum
viðbrögðum
Opið
Áhrif
##ektor
##rekstri
##sið
fjórði
bleik
##angeng
fréttirnar
Hauksdóttir
ráðstafa
##skarandi
stjórnmálaflokka
atburði
##amörkuðum
litum
duglegur
Þeirra
dansa
matvæli
Ásgrímsson
forustu
líkar
aðsókn
fyrirsæ
##asamtökin
særðust
Renault
veltir
sjávarútvegsins
Sag
umgjörð
bærinn
##ment
fing
kana
Einari
fjöldam
it
##eren
Almennt
venja
noti
skíð
##sama
Kínverjar
Young
##stæðar
áreiðanlega
sköpum
##þjálfun
##mundsson
Nauð
Sighv
Litur
Paris
##ateng
anna
miðbænum
frambjóðendur
viðauka
Leikur
sátta
samantekt
framgang
##nægjandi
##ele
kjaf
flugum
dreym
Heimsm
vöxtur
óþol
regn
##semjara
##mörkun
morgnana
Austurlands
##prestur
verðlagi
vék
ball
fot
framin
röng
ten
##brekku
Laur
Lyon
##unginn
119
hugsar
hendurnar
Ljós
Íslendingur
rafmagns
sálfræði
prestur
beinist
Bergur
höfuðstöðvar
geys
Vala
formennsku
niðurfell
reikningi
sjóða
Verslunar
gagnagr
óhef
##slysa
##afyrir
skiluðu
peningast
stj
stinga
Samgöng
misnotkun
Hest
hlutans
Sæn
##ileikar
##gæti
##aks
##ofnunin
##efur
eldinn
óraun
Pu
##eikning
skóna
Kyr
stjórnlag
greiðist
játað
Stefanía
fengin
##tímanum
eruð
uppsker
úrslitakeppni
##EN
##örfum
Evrópur
Atlanta
gír
hjónanna
stríði
Ellert
véla
##gefandi
Hæg
Kona
sigruðu
Utanríkis
brýn
Kvenn
Mod
biðu
samgöngum
listi
Áfrý
Rio
Íslandss
Hong
álagi
##44
Kn
##ðandi
ríka
keppti
##med
Trafford
skilgreiningu
##liðin
Ríkisendurskoðunar
lánsins
##asi
horfast
##þingið
stjórnskipunar
slaka
veiðir
ásætt
##öttur
heimsvísu
Heldur
WBA
bankana
Bandaríkjast
Jóhanness
náttúruna
##ögunni
forrit
nefndina
jafnað
##kennd
##járn
Þjórsár
##ylor
fólgin
kostnaðurinn
##bla
kaupendur
vátrygging
ræðst
Ásgeirs
SI
##akirkju
##miðstöð
liðsmenn
hættulegt
Microsoft
vinnubrögðum
Skatt
##oom
viðræðna
hugsan
##ilegast
lítum
##hton
Framkvæmdastjóri
íbúðina
##mælendur
réðst
##to
Wik
Robb
heilsa
vegabréf
Mir
vanti
fólksf
Sköp
gruns
innstæðu
##öfnunar
brasil
##vörnum
Ríkið
kosninganna
##ardy
##ssjúk
##væða
Univers
stórfell
##setinn
hlutl
Einu
Njál
##araþon
Pow
jafnræðis
Bosn
##asamtakanna
Slysa
vinsæll
Miklar
blandað
alþm
veiðigjald
##sýningar
##heima
lögmæ
Kepp
##skju
ræktunar
mesti
gróðurhúsaloftteg
sjútvrh
Best
##pson
listann
##auki
Rosen
grunnskólum
##von
##skuldbind
hlutfallið
##réd
endurupp
Grímur
Jos
glaður
ágæti
óviss
Dam
Nígeríu
##ÐA
Grindvíkingar
húsnæðismál
Fossvogi
##veður
drengurinn
verkamanna
Herjólf
##arn
keppir
##abyggð
brau
herbúðum
afdrif
tiln
##uston
mæti
ESA
Cent
Sjálfstæðisflokkinn
lút
slíkrar
andrúmslof
Mú
fráleitt
þriðjung
##ensu
##rími
##ískum
##öluna
tvíbur
##tumst
##stjórann
##orða
Íþrótt
íslenski
##nota
##arkröfu
verkfalls
##varpa
ágætu
##fyrirtækjum
lögsögu
##amo
samþykktum
framangreindum
götunni
##olo
##myndum
Sölvi
186
Hafdís
lögðum
Snjó
hjólreið
Gylfason
##sveitarmenn
gagnrýn
hagsbóta
afgreidd
##vísind
##straum
Gir
samstarfið
orkug
##vetna
húsin
##itz
bjóst
##tölur
Palestínu
##menningar
Veðurstofu
##tré
##eftirlits
Neyðar
svak
Bifr
##svip
smið
Kjalar
##arfa
úrlausnar
Fundurinn
undirritun
Raunar
##búða
Gaza
spár
öryrk
##smíði
Ky
kuld
Skrif
Birgis
Bach
sendar
ríkisskattstjóra
andsvar
##ving
##tlauk
Kaupmannahafnar
##lendur
##kostnaðar
myndavél
Miklu
húsaleigu
leikmanninn
meðlimir
Bifröst
tugir
Ástu
Kjarval
##hæðum
##bergur
##æðari
##varða
##valdinu
markaðssetningu
aðfanga
##dómar
Hátt
##beina
vettvangur
umræddu
Guðmundsdóttur
Lykil
##dagskrá
##röfur
lyft
áhorfendum
Anth
139
lánin
##horfur
##regla
Mennt
Prest
Hinir
##tann
ófær
yfirlýsingunni
undarlegt
óbygg
sérfræði
múslima
útsýni
Strax
185
hnef
Norðurlandar
ófullnægjandi
spre
##sbeið
Des
heiðurs
te
Völs
##unninn
136
##agjöld
barninu
Formú
##valið
pönn
líklegri
##seyri
Meðan
lyg
161
ml
##akrepp
Ákærða
síðkastið
glæsilega
stjórnarandstaðan
##arfjór
Umferðar
síðarnefnd
Europ
eiginleika
leikstjóri
##svald
##rós
Rafa
##ómynd
hagnast
Benz
Ágústa
##essen
bregða
búnaðar
áfrýjunar
Texas
Veig
##samningar
risast
skemmtun
merkt
##ke
fjármögnunar
Hlutabréf
tryggðu
tryggingu
Hjartarson
krafna
##hóla
hanna
kappak
Gallup
byrjuðum
breytingin
Grétarsson
BMW
##samningnum
tilhneig
me
mínúturnar
afdráttar
kæmist
##nefndin
##latan
lítils
##lýsingum
##vörðu
Sigurðssyni
CNN
134
brátt
Ólympíuleikunum
lögreglumaður
Fo
mans
fóta
útgjalda
KV
útivistar
vatninu
styðjast
ógeð
iðnrh
grömm
ellilíf
virkur
hvass
Hellu
banni
handtöku
Hrafni
##jökuls
BÍ
##högg
##útt
fjarveru
Forsvarsmenn
keppnistímabil
klof
Sérfræðingar
##frum
Án
sameiningar
raða
gekkst
lo
Taylor
torg
Mold
stuðlað
Sör
kvikmyndahá
óviðunandi
bull
##rúmi
spennt
Sant
Os
##lugi
##JAR
Þekk
##sköpunar
Leir
markaskor
lækki
##hy
slysinu
##samningsins
klau
fög
fjármagns
orðrétt
kastað
##íd
Roberto
græða
##arfélaginu
##úrat
##ndist
varðaði
##aferðir
Yr
twitter
laugardagskvöld
Tæk
stur
kosningu
stúdenta
fylgis
Gæ
lokast
Svava
##bílum
varnir
Austf
úrskurðaður
Framsókn
sundurlið
stjórnarandstæð
tengdam
skilvirk
Heyr
allshn
stæðu
##otter
##disk
##vægis
húsmóðir
háskólasjúkra
##ðungur
Marin
Vall
sízt
Tekjur
Hlutverk
pínu
orsök
alþýðu
töku
Fjarðar
heimsstyrjöld
deilum
ófyrir
Frjálslynda
##gögnum
sakarkostnað
spurningunni
takmarkanir
Fen
möguleikum
Núverandi
##heilsu
grundvallaratriði
Samtökum
Magnússonar
ráðuneyta
##igt
##reikning
sjávarútvegsfyrirtæk
##atíma
athafn
##bergs
þingmaðurinn
has
##amíni
hversdag
Briem
þolinmæði
##skaut
bónda
fólst
##sveif
vítt
##riki
Vilhelm
Napoli
rás
íþróttir
heimsóknir
##oma
dvalið
eftirlaun
SP
KB
##skuna
barnabörnin
Áhorfendur
arðsemi
landamæra
áttaði
##fræðing
mælti
Dís
gamans
##ahl
##inc
Gy
orkumál
meðtöldum
málstað
náttúrunnar
##samlegt
spurninga
##onto
atkvæðum
Þórhallur
##nus
##ovo
játa
##leyfis
##mánaðar
fréttamenn
Óskarsdóttir
Vegagerðinni
sor
ökk
##agen
styðji
1943
hvílir
messu
Dallas
þarfnast
Big
Teitur
kjallara
millibili
##æðunum
langs
1941
sönn
##öskur
##ndal
##vinir
Blessuð
##vor
Ir
##dæmis
BSRB
Houston
##vofandi
dómarinn
efnahagsh
menning
Stefnendur
tíðni
meistaraflokk
##akl
Finan
afleiðing
framúrskarandi
Sor
##svert
Fjölbrauta
varpað
mannf
Leikni
##rustu
tugum
Acta
óljós
Kólum
myndunum
félagsskap
klárt
stríðinu
spítalanum
mý
Frv
Djú
128
##þrýst
##árin
skýrir
Rekstrar
vandamálum
buðu
strákar
##jáni
grát
innihalda
birtust
uppist
##standið
þrum
uppsagnarf
rannsóknarinnar
hyl
Arc
bakter
körlum
tengda
samsvarar
##adeil
Tyrklands
##orti
##shyggju
starfsemina
almenningssam
einkavæðingu
Þórey
markahæstur
blessi
Mike
tilvit
veiktist
réttmæ
Draum
##nest
##35
Þórisson
tillagan
birst
rigningu
undra
##arfor
eyðileggja
##KIRKJA
snill
ávax
byggður
slösuðust
hopp
sax
öflugur
kynferðislega
fiska
greindist
Eignar
landamæri
bezt
Sádi
Kauphöll
Víða
vegal
embættinu
##smíða
missi
endurskipulagningu
##gers
togara
sumars
##tions
Þingvalla
hlekk
Sömuleiðis
##þóknun
##færslur
Norwich
Þangað
snil
##fræðings
Ingason
réttind
##stunda
mjúk
##cu
Félagi
Fur
##slíf
innrás
bókst
auðlindir
Þórhildur
íþyng
Þrótt
Kven
##alandsliðið
Kristin
##skjöl
##úsundir
sjúkrahúsinu
háskólann
##sumar
lýsing
launþega
der
##lífið
þingsályktunartillögu
kvikmyndagerðar
fötum
##aves
hernum
einbeit
samtökunum
1939
hyggist
Þaðan
Prestur
##slista
plötuna
Gestur
blí
kvatt
úrslitunum
hárið
##hátíðinni
gilt
vít
Indónes
##istar
veikur
##legð
réttri
Meistaradeildar
Breiðholt
Justin
hagfræðingur
mótmælendur
Undanfarin
kínverska
##45
samdrátt
framsóknarmenn
áfrýjandi
vas
##tirnar
vatna
forkaup
Hn
##sheiði
fæði
svartur
tvígang
Sergio
tilh
Hum
##eda
Tjarnar
Viðarsson
daglegu
##slóðum
úrkomu
freista
einstakar
Evrópukeppni
##haldið
opinbert
Lif
götuna
kísil
Landbúnaðar
stjórnarmaður
skýrslunnar
##gengt
tjáði
tengingu
Ársæ
320
tileink
matinn
stórleik
aðlag
verktaka
ráðandi
lóðir
Sigurlaug
pistli
miskabætur
Frek
veittar
Smá
systkini
##þingsins
Lenn
Trú
Anthony
flokkarnir
aflamark
platan
##muna
samkomulaginu
Laugardalsvelli
ríkin
Viðskip
##réttum
áttina
versn
Morg
blessun
as
Actavis
Eitthvað
kvæntist
##aneyslu
alþjóðleg
atvinnurekenda
##skulda
Pro
róa
upplýsti
Bandaríkjaforseta
Biskup
tilvist
##ían
öldunga
einkalíf
Guðmundssyni
##arfélagi
frábæru
uppeldi
framlagi
skep
Arsene
taum
þvílík
##mats
fórust
##avélar
þving
byggingarf
kaþól
síðara
Siglufjarðar
dagbók
Þröstur
krossins
##berts
Hafstein
Gunnarssonar
frítt
Silva
##banda
Sveinsdóttir
ekk
Rögnvald
##íur
grind
##afren
innsig
jeg
##brug
Gab
fréttastofan
##bundinn
Búr
framtíðarsýn
tónleikana
1918
hvítlauk
lagaset
Formúlu
hugmyndina
Sigurbjörg
hagkerfið
##stofna
mánuðina
pólitísku
Hreinn
##me
Landsnet
Organisti
lýðveldisins
Francis
liðlega
Magni
Þórhallsson
óverð
endurgreiða
yfirvofandi
snerti
höfund
Juan
raddir
##well
árétt
elstu
lagst
fyrirhugaðar
Luc
##vopna
Rafmagn
Pier
afurðir
sh
kalli
##vörn
landsliðshóp
fú
heilla
Vín
155
sveitarstjórnarkos
Grafarvog
préd
##afundar
geymi
##36
skrifuðu
##mon
áætlunum
kirkjan
TV
##etro
sprett
hryll
Heilbrigðisstofnun
vinátt
Kúr
##narar
forsíðu
142
garðinn
væntingum
stor
lagfær
Steingrímsson
hljótum
Faxaflóa
mikilvægar
##andyra
Bagdad
hruni
lokuð
dómkva
##þola
smi
##náms
##gró
##aframleiðslu
##eiða
Sar
neytend
from
##aðstæður
##afyrirtækið
frestur
skuldbindingum
hum
##tilboð
féllst
##freyja
fallinn
reiðubúinn
eftirsótt
##foss
##bygging
leyfði
##CO
innanhúss
sólarhringinn
##ddra
mögulegum
Verkalýð
sparnaðar
FÍ
útvarps
##gið
##lausra
##sheimil
verslunarinnar
##föllum
##agang
frávik
##aðgerða
útibú
símtal
kreppu
hefðir
Suðvestur
##úlkur
samfylgd
gráður
sinnir
Þóru
Patrick
samvist
Zlatan
Niel
##anámi
##komum
breyttum
skerðingu
##sks
University
Vilborg
embættismanna
kynntur
óþarfi
##stök
hefðbundna
undanskil
lausafjár
##áni
##frá
klædd
sterkir
##skrar
vaknaði
ráðstefnunni
strætisv
nýjung
Smell
almann
Hversu
málunum
Þórðardóttir
kirkjug
##föng
Hingað
##ófa
kvið
Hvolsvelli
áreitni
hrundi
##hallarinnar
bátnum
stórlega
skuldar
##stíg
notenda
hlýtt
Lögin
lægstu
Boeing
Tilgangur
Næstu
##kirkjunnar
norðurhluta
Kyn
Capital
##eldið
norrænu
aga
Viggó
hagræðingu
Toronto
Megi
##svit
frambúðar
stjórnlaga
barðist
Fischer
veiðim
trúað
snjóþekja
##brauð
skrítið
sumt
fögnuðu
Gú
hold
áætlaður
birtu
Sonur
ríku
Slóvak
##öflunar
stjórnarsátt
Böðvarsson
fréttamann
##anes
skilmála
hjartað
leiktíðinni
Hæfileikar
##afundur
Matvælastofnun
##inustu
sólin
síðarnefnda
##ardo
##smarkaði
staðgreiðslu
fullorðna
Viðreisnar
##eigendum
tónlistina
vinsæl
##háttum
reif
##lögur
Laxness
Jenn
útbúa
aukins
##ags
endað
leikstýr
fræga
skattur
##ones
Nýlega
erlent
friður
fjórðungi
Holt
1938
FS
Reykjanesi
kostir
töluðu
sigurs
viðtölum
Seinna
aðdáendur
Síminn
uppskrift
rúll
sækjast
sveitarfélögunum
bifreiðina
sameiginlegu
##verkefnum
gjörg
##ene
gám
sums
rekstrarkost
velur
aldraða
leituðu
##fandi
RE
stungið
varar
Fjölskyldu
Rc
Væri
##inótt
##framleiðsla
sprengja
tilgangurinn
Thors
suðvestan
Mótið
samkvæm
innflytjendur
bjuggum
Fjölskyldan
Stjörnu
Skoð
klukkustundum
##foreld
þjóðfélagi
innilegustu
Stan
samrun
Hagstofu
langvarandi
##ennandi
jöfnu
keppinau
Ingibjörgu
deildarstjóri
svarta
Ingibjargar
##yrki
##íkt
##sjúkdóma
##slána
misl
Cur
##bragða
kappi
Ric
pok
eil
##tónlist
Samfylkingunni
Styrk
náttúruvernd
##uc
Dreng
akstri
reikningum
suðurhluta
líkum
FA
reynast
lífeyrissjóðanna
skýrari
Höfuð
skipin
##færsla
sextíu
Viðskiptablaðinu
Brig
feta
143
Húsnæði
ævil
valt
hrifinn
##eid
sjálfra
hagkerfinu
haldnar
##kir
bíómynd
tóma
Heimildir
Greiningar
dygg
##rænar
Bandaríkjadala
aðalstefnanda
Líban
völ
##hreins
háu
Litháen
Brota
144
##markaði
Erfitt
heimaland
vísinda
málsgrein
##æðingar
Snorrason
lyfta
##vörðurinn
nýi
þróunin
húsnæðið
##spre
fasteignir
##feld
Háskólabíó
hreyfingar
hagræðingar
Holta
ráðstafana
vefsíðunni
mannskap
Lýs
Hérað
##mönnunum
skoðaði
##ýrar
Málsá
samanstendur
Deild
Þórarins
##veiða
Andrew
varamanna
bréfin
Peking
##MARK
##verjinn
gefnu
skráning
birtingar
##vint
eyjunni
þurrt
víðsvegar
orðró
137
##kkað
harkalega
menntaskóla
heilbrigðiskerfinu
##bundnum
ráðherrans
##spili
##slav
fenginn
Tiger
##æl
Arason
Saf
MP
##ningarfr
##bn
hámarksh
VE
nágrannar
Gera
setu
höfðaði
ökutæki
eignarrétt
örlög
##jólk
sambærilegt
bátinn
undantekning
Geirs
hornspyrnu
##ring
Cameron
milligöngu
ána
frávísun
Strák
veitingastað
neðsta
##afelli
kvikmyndinni
Dómurinn
máttu
samningsbund
verndun
Art
bardag
ákærðir
hættum
umtalsefni
270
Staðreynd
##eimur
##lendi
Íslenskir
réttarstöðu
vinsam
Dómari
afkoma
##undruð
slóð
byggðir
drjú
dráttarvexti
Bandalag
Palestínumenn
Cal
Setjið
elli
hagkerfi
fjölbýlishús
Aðaleinkunn
##hildar
valko
##ahóp
Nielsen
##ult
Merkel
kringumstæðum
##asvæði
Ama
ákæra
Guði
fjölskyldna
ljúf
hilluna
Mögu
##naða
húsak
áföngum
Mario
dragast
Derby
##rof
##veland
Óð
##festu
samræma
frænd
faglega
HR
skafren
skýrslutöku
##sie
##ynt
varak
##uland
##safni
þrýstingi
útgáfur
malbik
takmörkuð
lagðist
Jakobsson
Samkeppniseftirlitið
Árborg
Ray
gjafir
höm
sveitum
dugar
##anesi
##aðild
Bjartrar
akkúrat
##gagna
##dóms
opnast
kvikmyndum
##amálaráðherra
Telst
krabbameins
##mánuð
##ÐUR
korn
##ögurnar
Þingeyjar
hreyfing
Steingríms
þátturinn
Ertu
##bot
Birni
framang
falin
breskum
kjúkling
##júf
##sgreina
Hú
yfirgaf
Fáskrúð
formenn
Illugi
##jöfnunar
tæm
utanað
Kröf
Kastljó
##andina
Óðinn
grennd
nauðg
##landið
##legið
skógrækt
Fjalla
herða
Færeyja
##fli
##sur
##málinu
svæða
BR
keyptur
mestan
##hæðar
hótelinu
vinsælt
stjórnarmenn
##vina
Bart
Hafsteinsson
skattlagningu
hæðum
spili
Cleveland
##metra
leiðsögum
650
stjóra
Bogi
panta
þögn
##hríð
hreyfingarinnar
margan
lánar
skoðanakönnun
Íhald
evrópska
##LS
FISK
Dómsorð
vörumerk
ævis
##jónir
##år
fundurinn
þýtt
þáttinn
auglýsingum
##sbar
Veð
verkefnin
Guðsþjónusta
Maria
afturk
þekktu
tímans
ala
fullorðins
áætla
##lunnar
Esp
föstudagskvöld
prjóna
sameiginleg
##þáttum
##76
glöð
##arit
tölvur
Brá
deig
##vettvangi
reglurnar
vinkonur
skrifuð
knattspyrnumaður
Bára
selst
norðaustur
skammar
Guardiola
Sterling
ký
vegan
Lífið
Lamp
##verum
bisku
##hönnun
Fjallað
Vigfús
Olíu
ályktanir
stjórnaði
Einungis
öflugri
afrit
##aðlög
Hamra
dl
smásölu
Dóttir
##stýra
sýndir
rannsóknarnefnd
orðast
keppnin
eignarhaldsfélag
##amiðstöð
Líklegt
fráfarandi
Stúd
Stíg
bátar
ákveðnir
bass
verstu
Kristins
píanóleik
hlátur
Sköpulag
##ool
##isti
dyra
hugbúnað
næringar
veiðif
Loka
Árbæjar
##ækkunin
##hæðin
tannlæk
##pace
##úrræði
lánshæfis
endanleg
##ukerfi
Eyjafirði
Þingvöllum
Fiskistofu
##narnir
ólögmæt
##32
óvenjulegt
Píratar
Húnavatn
gleymt
ÞAÐ
varast
##íus
smábáta
siðareg
karlmann
Bréf
öfluga
Ni
Steinbítur
##vinur
sambandinu
verðbólgan
Cre
blöðum
##amálin
Heimild
uppbótartíma
Ref
##eftirliti
Glitnir
Bó
BHM
##spítal
##cks
stríðið
áhugaverð
varanleg
fullyrðir
fortíð
starfræk
mánaðarins
vottorð
##ergy
Loga
##örkun
stigu
##alit
bif
leikarinn
##zi
##alögin
fyrirætl
stjórnvald
notuðu
vændi
salan
Mýrdal
Lengju
##ráðinu
260
lántak
kjöti
##°C
búvöru
Íslending
lokak
Viking
##tækja
flókin
if
blæ
ágreinings
##bus
##pólití
##ráp
málsvarnarlaun
tónlistarf
fellibyl
mess
fámenn
gærdag
farþegum
uppfylli
pressu
foss
mótun
byrjunarliðinu
##nefndur
Fund
124
vallarins
##stöf
dagblaðið
Samkeppniseftirlitsins
lýsingar
uppgjöri
sjóðinn
##arður
fyrirsvar
undangeng
innleiðingu
Fljótlega
viðurkenning
##ssýslu
##34
##steinsdóttir
##otti
Hlý
umönnun
##þor
myndbandinu
starfsmanni
ýsu
brotist
leir
safninu
Mot
lestur
sjálfsm
hlunn
kaus
fulls
veiðist
##isma
einvíg
Hólum
gestanna
auðlinda
hringi
Friðriksdóttir
Sup
hugmynda
átökin
##98
minniháttar
##oppið
Svía
##heimilið
sjálfsvíg
Hákonar
orka
eldurinn
Magnúsi
##póst
##vei
rjóma
Skagast
##mælalaust
Stuðningsmenn
##andard
Ingu
vandræði
Bell
##stjórum
trausts
hverfur
svöruðu
Dags
skýrsluna
græns
Norðmanna
kóng
nærveru
smell
nefndarálit
liðu
réttarhöld
##hrauni
##meg
færst
djass
snjór
Sval
flóttamenn
##skí
##græðslu
ráðlegg
##reynslu
sanngirni
slétt
beðinn
mánuður
keyrt
embættisins
Nemendur
iP
Brom
Kaplak
ákveðinni
framarlega
framtak
athugað
titla
Sjóvá
##vic
##bankinn
leigubíl
McCart
Norðurlandanna
Dig
hrú
framkvæmt
bréfið
fiskveiðistjórn
boðaði
Bíó
Huldu
tillöguna
Markað
Opna
umsækjenda
##bri
klúð
Þrjú
##endunum
mataræði
samningaviðræður
Hafði
##heilbrigði
##aleikur
bílastæði
##frú
ríkisfjármálum
umspil
vanefnd
DA
Ross
þingsköp
Arnarsson
völdin
gen
tiltæk
Gautaborg
##sarar
Lionel
SS
valdir
Byggingar
rask
þrennu
Orkuveitunnar
myndað
Fylg
Páli
Nokkuð
Egils
augljós
##ansögðu
Skagamenn
markvörð
##aferli
hem
spjöld
ráðherrum
atvinnumenn
##annanir
Kringlunni
##ollur
##kyns
Katrínar
Tæplega
Málsástæður
121
stjórnarmynd
hollustu
stjörnur
##hat
forréttindi
##bankanum
sigurvegari
hafinn
141
sannfæra
##breidd
##tarlega
##lub
Framsóknarflokks
Þuríður
##nunum
Aþ
##feng
gjaldþrotaskipti
au
forsæti
brons
Enska
utanaðkomandi
sagst
skilanefnd
slær
ástrí
##ingham
Leg
FR
##jon
Lokatölur
Tap
gyðinga
##olía
##farar
vali
orðaði
hyggju
Ákveðið
gengist
vitley
keyrði
vantraust
vanta
##hagsmuna
hreinskil
aðalhlutverki
iðju
hlutafélög
Máni
vegir
##vörðungu
Fang
Clau
bættu
margfalt
ábóta
##dæmum
læt
fasta
fárra
gáleysi
165
Fasteign
beinast
jarða
Litlu
Dor
internet
sýslumaður
Katrínu
vænd
sporna
##lægt
Gunnhildur
Dre
Svip
yfirvinnu
##baki
Englandsm
líst
##vent
Ferdin
##aukningu
hefðbundin
##rk
fréttamaður
##skipan
##rastar
Aðalheiður
innbyrðis
##xi
réttir
##ínunni
keppnis
höfnina
##issv
ryk
##takan
Þórólfur
##oe
tvöföld
úrslitakeppninni
fjær
##stofnanir
##árásir
##lendingar
##ökkunum
##hólum
pant
##úgó
thorn
kynnir
eldgos
Skemm
##esú
myndbandið
þýði
leikmennirnir
tilheyrir
stórkostlega
##ísi
##jak
lauf
flugvelli
Grá
ljósa
fyrirspurnir
Ah
færðar
höfunda
dómnefnd
Börkur
ættingjum
##engt
brost
Haraldsdóttir
##nuna
frjálslynd
samkeppnishæf
##raunir
kam
gjörgæslu
kveikja
litrík
nýmæli
##börnin
##aðferð
viðvarandi
lægst
hóteli
Sigurgeirsson
stela
Alban
##nap
hverrar
gervig
áhætta
##starfs
einvörðungu
##leiðslu
Lazio
aðfangadag
Nauðsyn
Kristrún
tekjurnar
##jans
##lendum
heimsf
framherjinn
Starfsfólk
##eigin
hörm
##mögnun
Blaðið
Biblí
Dann
##kunni
sprey
Más
hlýða
vandann
háls
Fylgi
Hópur
##éttindi
skýring
Þorbjörg
mestur
Shef
Geirsson
tillits
ungar
Char
riðla
lokamín
framandi
nauða
##UG
##hlutann
hvorum
uppskrif
##asjóði
lóðinni
##vandi
##issandi
##IF
##astefnu
líkurnar
riðilsins
Hot
1923
Jesú
sérfræðingum
##sust
Sker
vilt
staðir
byggðu
fundargerð
útlendingar
##inefnd
græna
dagurinn
stundirnar
yngstu
vori
ep
##tryggingu
heimalandi
Hamas
tjónið
##hir
##garði
ráðgjaf
Lítið
Oliver
##höfð
TM
##cc
kennit
Laugavegi
##bréfið
##ima
Mathi
gögnin
sköttum
##ody
bjargaði
sauma
550
Alda
Karól
Glob
Ivan
##ískur
##aster
sambærilegum
##smá
lausnar
Tónleikarnir
framfylgja
##rista
frádráttar
ungi
Aftureldingu
einok
nemandi
frjálsí
##zen
niðurlæg
lífsstíl
Sunn
Ragnarsdóttir
1929
stórmót
líknar
Osló
ósanngjarnt
##beit
Fell
Létt
róleg
pirr
##árra
##aflokkurinn
##skl
hlæja
##gjalda
##uku
Schw
höndina
Eski
##neyslu
Alvar
Raun
hugsanleg
Nov
bókasafn
leyn
Love
Samningur
kvennaflokki
syk
##ála
##ynningar
veðurs
framkvæmdastjórnar
Sigmundar
laxar
Smáralind
##ninu
##vísitala
Leifs
vell
nauðgun
Sambíó
ímyndað
sjálfsmark
hálfleikur
Owen
Good
##fiskur
Miss
Dómarar
Víkingar
aur
##astöð
gista
Shak
##ússyni
héldi
Simon
kennd
bakgrunn
Fræ
##mandi
þekkist
##véla
##38
seinustu
skiptar
gamlir
undirtek
dreifingar
##sinnis
ugg
upplýsingarnar
Exista
Johann
repúblik
ársreikningi
hveiti
ba
Seðlabanki
framfarir
bandaríkja
##nem
sérstakrar
##over
skemmtilegra
Bloom
ógleyman
Sagt
netfang
##reglna
Gagnrý
Lar
viðgerð
ósp
##ofna
prjón
Torres
gísl
##kví
sjónarmiði
##félaganna
##skíf
matvælum
vangaveltur
syð
##lendinga
##dreif
##leikana
vinnuafl
Sheffield
Jónasar
##ingen
Kross
Ögmund
pru
##skerfið
Þykir
Mikael
fallegum
##arðar
áleiðis
endingu
Nafn
##samtökin
##itch
##estar
Ingvi
varanlega
##nor
131
##sliði
poka
Alþjóðagjaldeyrissjóðsins
Gerðar
##ljót
kjöri
##emp
fíkniefnum
##ungin
sameiginlegum
##hækkunum
Fred
Nev
Part
þóttu
1920
Hend
verjandi
Allur
##ögð
vasa
122
Amster
##hitun
Cat
raung
nöfnum
ábótavant
lykilatriði
æðru
bjargar
Hverfisgötu
ótvírætt
Brid
Dep
##önnunin
Hellisheiði
Hafrannsóknastofnunar
ramm
viðburði
forust
kjarasamning
Þessum
##mikill
uppsagnir
skilaboðum
dómstóll
neytendum
viðstödd
##ónlist
Evró
blás
##rót
ritaði
##janum
sýkna
##shygg
Norðvestur
Jim
##IV
langtím
##ekta
holur
Samning
sjúklingum
280
strákur
Meirihluti
opnu
Garði
Hvanneyri
tvímælalaust
söluna
##ross
Rand
hálsi
Jóhannesar
##tunni
##asjóðs
##tekna
kerfisins
samstæð
Sýnandi
Amsterdam
Samkomulag
##stefndi
raunveruleg
##oko
riftun
Saint
Úrvals
##stjörn
##vinnust
Indlands
útlána
afbrot
Invest
Lóa
fljótur
##bit
segjum
skattheim
streitu
Arnalds
sæki
Brim
falist
##ÍK
##komur
mold
##send
LSH
##bía
##sferð
handar
Spe
óform
Flu
vers
##shluta
óverðtrygg
##IA
hundruðum
nau
Forstjóri
tjáningarfr
Tryggvason
##vek
umsækjendur
bæjarráðs
Sec
virkjunar
gagnkvæm
##adal
##eder
seldu
framansögðu
endi
Una
slæma
framburður
kjark
fjalli
framlögum
Olsen
##ífið
Árnes
fjárhagsleg
túlk
meðaltal
utanríkisráðuneytisins
vi
gjaldið
fiskinn
dapur
Fir
Tíma
##ship
Hvít
talsmenn
##elda
austurhluta
##fræða
starfseminni
listinn
##asamband
Lág
##rests
flau
horfinn
fötl
##ökin
grænum
störfuðu
##sári
1928
Búðar
##sfundi
Sebastian
##eo
myndaðist
landsliðsmaðurinn
##ögunnar
Energy
bókstaflega
ríkisvaldsins
Fanney
##rabbameins
endurreisn
hatur
##37
slóðir
##ador
##ican
Bon
##sstjórnar
Kir
sýnis
Karlsdóttir
eðlilegra
##ten
sanni
bakvið
vont
Bourn
markaðsset
kjaradeil
tónleikaferð
færðu
álít
hlegið
##viður
hryg
Grafarvogi
##komið
samþykkis
lifi
kúa
myrk
##gengi
andliti
##arfélögin
efnahagsmál
leikmannahópi
UMF
Jensen
vandinn
nægilegt
stemning
fótboltanum
##amet
White
frábærum
##bólgu
##greiðslum
##tró
Mó
ríkisborgarar
Tví
##poka
rænt
misjafnt
fyrirlestur
ungan
flugu
Brúnn
unnar
##mí
aflétt
heimurinn
ástandinu
faðm
##enst
gamlan
keppenda
##áttasemjara
staddir
forskoti
Fjar
fjöllum
arabí
Bær
umhverfismál
##hlaupi
Stjörnuna
landbrh
Dominos
Náttúrufræðist
##borðinu
ta
##grunni
þyngri
hól
versla
##vinnsla
Nordal
178
##lagna
127
uppalinn
uppnámi
Fríða
##feð
heimilin
undanþeg
stórkostlegt
##cz
##rez
##otur
##inet
##estr
hugtakið
heilbrigðisstarf
hátíðin
##ásætt
hótelið
sektar
Fil
fiðlu
reit
Viðtalið
sumra
merkingar
bryggju
mannvirk
breyti
Afleið
Ferdinand
ólöglega
##arí
##láta
Kúbu
söluskatt
Bournem
gróðurhúsalofttegunda
##úrum
Telja
stefnumörkun
vestanhafs
Erlu
heimildarmynd
þvæ
þjófnað
þingflokks
lútandi
kantinum
uppáhalds
landsvísu
stjórnum
Huss
##uma
augunum
##riðin
hendinni
kirkjum
ód
ákvörðunin
hygðist
Kristjana
uppáhaldi
aðför
foreldri
was
forða
##rask
hvítt
hógv
##rænn
##kirkjunni
liðna
##tíðir
sumarsins
Sunda
andstæðinga
framvindu
sval
Bankinn
stuðningsmaður
Baldursdóttir
hefðbundnu
##áfrýjanda
Birg
##hraða
handverk
siglt
##amiðlun
##ráðstaf
niðurstöðurnar
##ech
símanum
innflutt
Brotaþoli
yndisleg
##uts
##bat
Skipið
óhjákvæmilega
##tækifæri
##vandamál
skilorðsbundið
kurt
bílast
punkta
Vladim
stoðum
ferðalögum
Ian
grænir
Ferðamál
Langholt
##NAT
brjóti
Elliða
starfsmanns
Stjörnum
blokk
Gler
##arferð
##fræðin
Thel
##gá
##spurnar
einskis
##een
##þur
##aranns
búfjár
##lagg
Komið
##ötnum
bern
atkvæð
##búl
viðtökur
Ísraela
##osi
##than
nægir
friðhelgi
tónlistarmaður
Ibra
##leytið
trygginga
##sölum
##einka
##svegi
fáeinum
kjötið
efnahagshrun
##ika
360
##önu
Evrópuráð
menntak
##skipun
Móna
sviðið
palest
óend
nýt
##anó
Hrund
SÁ
##uðsþjónusta
Atlason
Costa
heyrst
útför
flutnings
##komuna
réðu
Bot
verslunina
háskólans
kjól
Leikstjóri
atvinnulífs
lambak
skóli
Schram
Opin
rifjar
Greint
indver
Kristian
aðhl
skýrslum
##ýslu
##fal
þjóðfélagið
pásk
##arad
Dyn
viðræðunum
framburð
litu
##rana
tró
persónur
##allast
##kvörður
##eyrar
leiklistar
##ákvæða
skjöld
liðnu
verulegur
ákæruvaldsins
hetja
Veiði
Ármannsson
##jónum
Eyjafjalla
##hley
kolefni
forvitn
nítján
ósáttir
Bournemouth
svepp
mælikvarða
##höfða
##vana
1932
##alegan
dauðsf
löggæslu
bakvörður
gjaldeyrishöf
Viðreisn
hannað
##væðingu
skýrum
harðri
Þjóðhag
Indiana
Lampard
samgr
Hermanns
1934
atburðir
rist
fundir
##só
bornar
Bergsson
Holding
##staðir
liti
vitund
Indónesíu
seldir
leigum
Hillary
gólfið
Spurningin
Straumsvík
Siv
lofaði
Az
Sigmar
andrúmsloft
hrinda
launahækkanir
Pogba
sjálfar
drengsins
##eignum
##aflot
##veldis
con
##helgina
vélum
pic
hljóma
1937
umhverfinu
rökst
veiðarf
Ap
Heimi
Vesturlöndum
Vind
meginreglu
##tap
hagsmunaaðila
Ræktandi
Butt
endann
skilmálum
##þjóðir
fyrirliða
##júkrun
útreikning
sveitina
ummæla
sáttmál
##xa
##ows
áherslum
skólanna
Fossvog
skæru
atriða
##miða
langm
tónlistarmenn
##aldurinn
vinnutíma
leikkona
leiðréttingu
Bjarkar
Kárason
Ægi
##öfl
##lögðum
ógnar
kláraði
magnað
stúlkna
fiskeldi
Anfield
##færni
taugar
líkamann
##óðri
aðildarríki
Efni
þátttakenda
blása
lögreglustjórans
##ningjar
ókomna
stórra
Andy
##fjöl
##ilegasta
hal
Þrastar
dómsmrh
Stjórnendur
##allinn
Kaf
##49
Áskrif
##eyrir
##skeiði
nágrenn
Hjörleifur
sjóðum
##ogn
##hverfið
dreifbýli
bankastjóri
tilboðið
##fiski
##slagi
tengi
##senda
##búskap
þaki
stofnandi
Kjós
ríkisábyrgð
yfirheyrslu
lánsfé
Rúmeníu
Spæn
sameign
vinar
uppsjá
Hugh
stk
Fjölmargir
Adolf
Guðf
dúr
dósent
aldarinnar
Upphaflega
kalda
myrt
Magna
óásætt
tölurnar
leikkonan
sigrað
samvinna
landsmönnum
Lever
Besti
heppinn
fiskiskip
óþarfa
viðstaddir
rjúp
##antí
146
##hlutun
Eystras
nútímans
sætti
áfrýj
skilji
Mm
helgarinnar
hermanna
annmark
##skjó
Selja
bita
vélarinnar
hvítu
##íll
Henrik
##sskýrslu
##narr
venjulegt
framfara
kaupsamningi
##áætlanir
1933
Samúel
Tindastól
##stj
hatt
þekktir
##ift
##ynja
áratugarins
innblástur
áfeng
##lánum
##alöggjöf
Sindra
niðurstöðuna
Bifreið
stöku
##OS
drauma
##aken
Hlíðarenda
Orland
nag
myndun
##ekkja
kynslóðir
skoðana
##osta
##ür
Nokkrum
stafi
unglingur
##óttöku
byrjaður
##abi
útreikningum
##veitingar
metur
niðurskurðar
Grundart
bensíni
tæknilega
nefndaráliti
úthlutunar
hættuleg
náminu
garðyrkju
##cker
Sess
áramóta
neytt
Arnardóttir
Borgarfjarðar
lokatölur
##ulandsleik
rafmagni
þurrk
##tekju
áverk
Finnboga
Fló
lim
Stella
##sfyrir
Portland
##æfingar
##46
1935
lágmarks
Sölu
Löwen
SU
Hög
undirbúnings
tilgreint
##eno
atriðið
sérstakra
varnarmál
Hólma
festu
Spánverjar
rúmu
raka
##semin
Rub
##afyrirtækja
hneyksl
Lam
##sstefnu
Toll
skýringin
lesendum
alþjóðavettvangi
##afulltrúa
löndunum
Tri
axla
##gerðinni
flugfélagsins
132
beind
landsliði
palestín
berist
##MARKAÐUR
##39
Felix
synir
##vard
##kvaðningu
##astétt
##sskrif
Fm
tiltekinn
neg
skynsemi
fjölmörgu
tilteknu
einstöku
hreind
##chez
##boltanum
##múla
orgel
##shafnar
auðlindum
ferðaskrif
Staðreyndin
myndbönd
##sumhverfi
áset
meginatriðum
flæði
innlenda
1922
##ritun
Walk
jaðar
hugsunar
Hollands
kosinn
Kell
Tw
sjór
starfrækt
sch
stráka
Gh
##baráttunni
tilkynntu
Slóveníu
Lennon
Michel
réttan
vægast
bjóði
Las
Marta
hjólast
heimsmet
##græð
mild
Þarf
framkvæmdastjór
strákunum
útgöngu
Kristjáni
Búst
bæst
##LEI
fyrirgjöf
greinina
Qa
gagnstefnanda
túr
##ými
lífeyrissjóði
erfiðari
byggðum
##útgáf
##deildir
umhv
##vefnum
framtíðarinnar
Landeyjahöfn
genginn
##orentina
hass
##stöðunni
Ítalía
yfirgefið
gula
Venesú
liðinni
umtalsverð
texti
Is
##ólfsson
skemmtilegu
##ustofu
Gord
218
horni
Bandaríski
Sveitar
##jungar
stofunni
Ökumaður
systkinum
##nuðum
tefja
söngvari
Ýmsir
heimsmeistaramótinu
Dy
##slepp
atburðum
afkast
##þegum
##LF
ofboð
svipaða
brosandi
lagningu
timbur
##hér
skýringa
undanþágur
lagaákvæði
Mf
leka
röngum
glæsilegt
##ríó
lækkandi
partur
frekara
vopnahlé
##arm
færni
##færum
##manúmer
Hagkaup
landað
lúxus
##fsi
Munurinn
niðurskurði
##kusen
hjart
##grundvelli
vegfarendur
sóp
##afrétt
do
sértæk
kenni
Darri
vanur
erfðagrein
Guðjóns
Banka
##alítið
tímabils
grannt
Orlando
Cas
Ff
atvinnustarfsemi
fyrirgef
gjaldþrotaskipta
Breytingar
hækkunin
Leverkusen
bandarískir
##eytt
ljósmyndari
Baugur
staðarins
blaða
Guðbjart
Landslið
Ölfu
mánaðamót
afurð
rússnesku
amfetamíni
Abb
flotta
innflutningur
sjónvarpið
strang
aldurshóp
Gang
##ömdu
brenni
hagnaðar
oacute
framsóknarmanna
##ástandi
##kerfis
##alem
ákærulið
Gunnarsdóttur
##þrá
nýttu
enduðu
spý
viðurkenni
heilmikið
efnahagssvæði
Hallgrímskirkju
hrökk
##hreppur
##lim
##samtakanna
Míl
lagast
stjórnina
lögreglustöð
##vagn
Sjávarútveg
nokkurri
Bi
##hlíðar
##asögu
Gef
Vað
Menntaskólanum
Eðl
frábrug
valkost
##fag
Óv
##nik
##tala
Wolfsburg
Valt
athugasemda
kynnu
læknum
stjórnarskrána
þúsundum
##asáttmála
Walt
vörumerki
iðnað
##hjar
##ökki
Þorvarðar
léttir
1931
væntanleg
hjónum
réði
lausir
Efnahags
bör
Hófa
Cast
forsetafram
bauðst
Isl
lokaleik
##óh
Bry
gælu
lögbann
##hverfinu
Pap
svipta
##hjálpar
Clark
björgunarsveit
##umanna
laxa
fluttum
Tur
##oki
##fólkið
##rannsókn
einkaaðila
no
hagvexti
##lund
##nastarf
##ekstur
Bab
svipt
Blikar
vegferð
mögn
Herbert
kennurum
tryggi
skrifum
tilraunum
rúman
úrbóta
harma
demókrata
Theodór
Gnarr
##ET
##PA
##mannanna
Austurvelli
Fjölnis
Kosovo
##tah
vegurinn
Japans
aðsetur
launafólks
1927
Ban
lækkuð
músík
fitu
landshlutum
tölulið
Filipps
óbein
Heimil
Neð
Næsti
dómstólar
##ettinum
ökumanna
punkt
umb
finnum
eflingu
pilt
Eigendur
##torg
röðinni
hljóðfæri
##zon
bikarinn
málaflokki
samkynhneigðra
sparnað
verulegt
öldrunar
leiðtogar
##aldir
tilboðum
Mem
æskulýð
bæjarfulltrúi
##íka
Ríkisútvarpinu
þróað
Tu
##kapp
##gust
Sunday
hyggja
sokk
##ilegrar
gistingu
##llu
##öttinn
Bob
nót
suðaustan
Húsavíkur
sma
eftirvænt
Syð
we
kartöflur
atvinnumál
fjármálaráðuneytisins
ógnað
organisti
##ettinn
##ussia
seð
##go
Ásv
vinsælasta
Morgan
biðjum
sjúkrahúsið
Skallagrím
PGA
##belti
##skuldir
Stykkishól
innlendra
Ingimundur
launamun
Keane
Soci
##ítar
hlúa
##víkingum
##car
Forsetinn
smyg
samfara
langstær
this
##urs
hafður
##ofan
fallsæti
hörmu
Sau
sóknarmaður
rest
##ákveð
Síðari
Vífil
Júgó
óstöð
##ónum
endurspegla
undirbúið
Jamie
Kan
hat
##prins
PSV
einstakur
hjartans
hagvöxt
snjallsí
##day
##stefnan
Þjóðminjasafn
Ásmund
Mist
##amæ
Hlutfall
Guðfinnsson
Sen
riðlak
##skostnaðar
Umhverfisstofnunar
nást
Fráköst
einróma
Minningar
##mel
viðbætt
dey
kosningabaráttu
##arfélögum
Rússum
##arfólk
kölluðu
jólum
##afrí
kenndir
Landak
Brook
##vegg
##estone
vaxtak
##onna
##stigið
aðskilnað
##gjendur
##sambandinu
tilvísun
landlæknis
Petr
##bandalaginu
Grundarfirði
Rangers
afhjúp
Lánas
Ingimundar
Lögreglumenn
leikirnir
Sigrúnu
XX
vinsælustu
flís
kærleik
##gæf
lítilli
sjálfsmynd
##ráðinn
Venesúela
Fari
##umi
##eyðingar
markalaust
treystir
Íhaldsflokk
Garðabæjar
bráðabirgð
##afgreiðslu
ofn
##aliðinu
##sveinn
##util
Egilshöll
Vörn
Öskju
syr
líkja
##emy
##svellinum
vísindamanna
##setningin
Ellen
leynd
þjálfarinn
##skírteini
opnaður
ágætum
lóðum
Il
##ogan
dæt
##síð
mistökum
##áli
##deildina
allskonar
trúverðugleika
Pétri
##sug
Tam
bindi
##akona
söfnun
úthluta
133
nafna
##ingnum
könnunar
reksturs
meinta
rúmi
Ingunn
vottum
##þykkt
tegundar
Repúblik
bónd
ferðalagi
frestun
##ðina
Bjarnar
greinst
framhaldsnám
Heat
##frétta
##alke
venjast
Þjálfari
útivist
##líðan
skí
##skaga
kosningabaráttunni
vanrækslu
##UK
jákvæðar
Dur
##nesku
##ugrein
##góður
áætlunar
##daq
##umb
sígar
einingar
##öðuna
##mennta
##argæ
Hrannar
Slíkar
neyta
Föstu
##47
##agildi
tengdist
##ási
veraldar
fréttastofa
veittu
##ættir
Greið
afskriftir
##uðumst
útliti
Egyptalandi
##48
viðhalds
kylfingar
Tékklandi
Kröfu
tilnefndur
forsendu
##VER
hittir
sofandi
Lillestr
Byrjunarlið
##ite
fyrirspurnum
stjúp
græð
Ríkisstjórn
héraðinu
ljósið
fallegar
Guðríður
heimspeki
rúst
skerðingar
149
salti
Ox
##arflug
Marteinn
Hollendingar
smávæg
Danny
sítró
framhaldsskólum
##ign
1926
misk
Grí
MM
borgarbúa
Hrafnistu
##úsa
lagfæra
vandanum
Ríkharð
yfirmenn
streyma
##etra
##lögregluþjónn
vinsældir
0000
skammtíma
##ture
##takmark
sell
Charles
skýrslan
íþyngjandi
teikningar
útlán
Ashley
##yes
rannsóknina
Gengið
##sagna
Hert
##cri
Heimsmeistar
einbýlishús
hjúkrunarfræðingur
undirtektir
aðstoðarþjálfari
hótanir
##eiðum
bæjum
viðskiptabank
etja
peningana
##leiðum
Mónakó
Brighton
Boð
##komulagi
Ander
fyrirhuguð
atvinnurekendur
##anlegri
fjmrn
##brautinni
Tilkynnt
mil
skriflega
flugumferðar
##eðslu
##arkerfi
skafrenningur
ökurétti
Ibrahim
##arez
##ssemi
saknæm
einar
værir
##mikla
skipulögð
ráðgert
Sur
##eilis
verkefnastjóri
stafa
rannsakar
Hannesar
Reynisson
##aukning
tengdust
bílaframleið
##flokkur
veði
Vak
##skonur
bækurnar
útflutningi
vett
##rúður
kynntumst
##tengd
##plán
##bels
##etnam
skírskot
##fat
##mad
##bikarnum
nóttu
American
##bergja
Flugmál
stúlkuna
markahæsti
##akon
hreyfi
##heimilum
fráfall
Nauðsynlegt
##sprett
##shlíð
göngin
öflugu
##svöllur
Þrótti
Bjarn
innflutnings
íbúanna
vaknar
efnahagslífinu
##karl
##kkaði
Frost
tilþrif
179
seðlabankastjóri
forkeppni
jarðir
nauðungarsölu
##blöðum
Sambíóin
##vali
metrum
Flens
##alæknir
endurheimta
Daginn
risastór
hvítur
##hæfar
Pho
mannúðar
Nasdaq
vígi
Tilgangurinn
ítarlegri
knattspyrnusambandið
148
##menntunar
hött
kærasta
##aðferðir
##smeðferðar
leiklist
Ungverjalandi
Blu
##varar
varamannabekk
löggil
Rasm
dyrnar
viðskrh
##hagn
##uml
Standard
stuttan
vitnaði
Hálka
Laugaveg
##wall
Svavarsdóttir
Sæmundsson
Síð
eignarinnar
skjótt
Sagðist
Ca
Steinarsson
nýting
##SKIRKJA
Íslandsmeistarar
hu
eyddi
persónuupp
frammistaða
ströndinni
Graf
Porto
Mjó
þekktum
vaka
sambærilegar
varúðar
spilum
umsjá
Aldís
danskra
lyfti
Grikklands
örorkulíf
Bubbi
Kaplakrika
##aleiti
stúdentsprófi
##meistari
##unnin
Meistar
Aðstæður
þátttakandi
Makedóníu
Paradís
fundað
Trygging
##ófi
##fulltrúi
samgönguáætlun
gólfinu
fækkar
Pist
US
fros
##veiki
Áskrifendur
þakkaði
sveitarfélagi
alþjóðlegri
225
skur
Greinin
Flokkurinn
##lögðu
##rekstrar
fasteigninni
Djúp
sjálfsag
rekstrarg
elta
Maur
úrskurðað
bönnuð
##ekjum
##anlegu
Edward
##ferðis
##velta
fréttaskýr
Skúladóttir
broti
Fyrirtæki
##amarkaðnum
gagnrýnd
Viðskiptaráð
##síða
Atvik
fjármálamarkaði
nauðgað
óró
innt
gjaldmiðla
hálfri
brautinni
dali
deildab
Ragnari
óaf
staðurinn
námsmenn
##áða
Bjarka
##þáttur
fáar
##amen
svörtum
gerðarbeið
Suðaustur
##ruðu
##bbur
hefi
bátum
Gerður
##42
##meta
byrjuð
sameiginlegri
krakka
gagnast
sýkl
leikskólum
Gill
Írland
lifum
##öping
tæknin
samþykktir
gagni
Ætla
Fu
##yrðum
Laugarvatni
##aksóknari
mestum
##ákvörð
Viðarsdóttir
##xg
endurút
##alvar
kinn
##fs
vítaspyr
##aglugg
##ákvæðum
##verslunum
snög
tening
Che
Stóru
nágrenninu
stjórnsýslulaga
Marse
facebook
##húsin
##bundna
sterklega
Bale
Rafael
##sé
persóna
baráttuna
kvartaði
starfslok
##nótt
réttinn
kaupanda
Rosenborg
##jöpp
samferð
tilnefningar
sagðar
ritstjóra
Play
húsnæðinu
vakin
studdi
líkamanum
stofnuðu
launakjör
sjálfsmorð
málflutningur
##laustri
sumur
##jökul
pyl
áætluð
Dú
##ugan
Evrópumeistar
##etroit
##hyr
Auðun
Skjálf
##sgl
Lögmaður
stefnuna
boðskap
##eysis
##oph
búnaður
Brynhildur
Rauði
rómantí
Miðjarðar
þyk
Hrun
Rannsóknin
Dreg
Allen
kjara
Leig
Hannib
##bour
Kj
mótmæ
upplýsingatækni
##þátttöku
Svavarsson
Eskifirði
##so
víx
slitastjórn
Detroit
hagur
laða
möguleg
kostnaðinn
AGS
##hallar
kúl
##sken
##svettvang
Sigling
fullgild
afrakstur
Ever
Eftirfarandi
óhug
Evu
Skráning
séreignar
norsk
Hollendinga
reiknar
supp
stöðvaður
##þættir
Ketil
##fri
línuna
kastaði
óskaplega
##áp
skallaði
viðhaldi
beindi
þenslu
reiknings
##gart
andlá
Austurríkis
##sveinar
##svæðis
Hólmar
hetju
Jonathan
gaml
##óðar
líkleg
##taleik
styttist
Viðbrögð
Flm
háskólanum
dýpi
Schalke
Club
upptökur
skrifstofustjóri
Íbúðalánasjóður
Bow
##þingmaður
Haz
Gestirnir
gæfi
brýna
kröfunni
Alf
Áher
árekstur
klósett
ákvæðisins
##reist
##starfinu
lektor
barnabarna
fréttastofunnar
úrslitaleiknum
##framkvæmdir
innsýn
Túnis
##vini
##ere
##asamtökum
afhendingar
skjalinu
glöggt
Barb
##sárunum
##DE
##shlutdeild
Ákæru
Marinó
##egas
meðhöndlun
Stefáni
traustur
leynt
Rose
Lyng
##einkenni
afborganir
heimsmeistari
samningaviðræðum
skiptu
hækkuð
Brent
hvol
batnað
Financial
orðinu
ferlið
álversins
þegið
Jess
dugi
Madrí
una
spilaranum
Han
##sport
undirb
Gríðar
breskra
unað
Hvammst
jur
Þorkell
fastir
snyrt
Pol
tvöfalda
rita
##hæfi
Norðurlandaráðs
Samuel
Erni
##69
##engen
##hópar
##RI
samkomulags
Níu
áfangi
tilhögun
vináttulandsleik
leys
Ábyrg
yfirsýn
##gerðarinnar
skoðar
hreyft
sné
sjaldnast
##drætt
##persón
fyrirskip
Byggðastofnun
##öttu
beinir
skemmd
##77
Mathiesen
kálf
kolt
##harður
Gor
Ísraelar
öndunar
Veigar
Blaðamaður
mæður
##sembætt
nægjanlega
ötu
hittust
næm
sterkan
##hópum
Ice
umboði
##öngur
ferðal
ranglega
Haust
feim
##ndís
Hir
##ingsins
altari
1924
Fyrrverandi
Hafrannsóknastofnun
minnstu
Orra
Kauphöllinni
Viðskiptablaðið
aðbúnað
##mm
##kasti
National
##óttur
sterkasta
rauðu
na
lagafrumvarp
gengisl
Elía
trúlega
afsk
##ii
lífsgæði
skilum
##lausan
svind
handlegg
Skallagrímur
byrjunarlið
##skjali
kjósendum
##togar
Fjögur
bankastjóra
efnahagslífi
gáf
Íslandsmótinu
Grundartanga
núll
ákvæðis
##árunum
sjúkralið
Ces
##argjald
##lutninga
Tveimur
1925
bardaga
Hætt
féð
Hrað
Atlantshafsbandalagsins
##íkin
##úrskur
Penn
##akos
tillögurnar
andstæðingar
forgangsröðun
ellilífeyris
ræst
aldeilis
##átak
##sskól
##stímabili
##paði
siðferð
bótum
ca
hluthafi
málsaðila
Edin
fjölmargra
dimm
umhverfismálum
tækist
Vigni
Gestsson
hugarfar
Stúlkan
lokaður
Jason
##leifsdóttir
lagað
tvöfald
Árness
lendi
skilin
prédikar
##eiganda
##gast
fórna
gefandi
bifreiðum
##sjónarmið
Miðflokksins
Ess
ráðgjafa
Sæmund
##eisl
öryggismál
margsinnis
##bby
prófkjöri
Skipulagsstofnun
##did
##aflinn
Nott
##streymi
Búlgaríu
Smelltu
##plan
##ret
fangar
verksmiðjunnar
ökutækja
Cost
##tökuna
##ext
jólatré
##alar
héraðs
jarðvar
##föt
##HF
##ase
##svott
Inni
boðar
rannsóknin
fretta
vaknað
vísitala
Friðriks
heyrðist
endurfjár
verkfalli
##dómstól
tölfræði
1921
efnahagsá
##asviðs
áföll
áfalli
bin
##zo
frístund
##hótel
leikin
miðstöð
##ranir
kaupandi
umferðin
aðstoðað
Tit
##vangi
##gjunni
##meistar
Undirbú
##knapp
##stíl
1919
##línunni
felldi
vegið
Fella
##KA
##hagsmuni
hvala
forsjár
sorglegt
Dað
##boltinet
málar
stúlkurnar
minnumst
##ljóst
Robin
Lamb
##úða
##imit
Manuel
árar
Ytri
Ólína
Grímsey
##amerki
Jav
##ugjöld
mælast
##hópinn
Vilhjálms
Class
##alífi
Skógrækt
kjarasamningi
boll
uppreisn
TF
##IL
##bræð
##tasta
sjálfstæða
##bell
##ansa
##zk
eigast
gríðarlegt
virkjanir
sveiflur
FISKMARKAÐUR
óeir
tröll
ösk
markaðarins
##mörkuðum
##önk
##bera
suma
Marseille
borgurum
veikind
Aukin
ítrekaði
tíg
álögur
##svak
kusu
Super
##sýslum
ríkisútvarpsins
drykkjar
Mannréttindadóm
Strákarnir
Nicolas
sæi
##HO
Gaal
##kkonan
##flugi
athæfi
Suarez
##atíð
Rautt
setjum
kveðjustund
##afnar
náttúruauð
samtöl
álagið
Kristni
fjárfestum
öldum
frjálsa
kirkjuna
böl
Líbanon
##lyg
meirihlutans
Indriði
bjartsýn
##dalsheiði
bekkjar
aðlagast
##vélin
Norska
bókar
##sskilyrði
ríkisstjórnarflokk
Cont
Skjá
óð
Erlendur
LÍÚ
aðlögun
veitingu
##herrans
Burðar
Yfirleitt
handtekin
breytta
SÁÁ
bentu
##skerfinu
##fréttir
##ækir
##órinn
Redknapp
##álum
þjálfað
einstakir
Maki
Demókra
##bakkanum
##ganginn
##urnal
##efu
verðandi
meistaramótinu
líklegra
jeppa
Champi
Ólafsfirði
efnahagsleg
##rat
verðmætum
##ofunni
##vélum
Fiorentina
Mid
##´s
vitundar
Royal
##legðar
sæmilega
uppreisnarmenn
tey
##starfa
Hlín
##irð
handan
tímaritið
einustu
meðlimur
viðskiptalíf
tvítug
##amótsins
Law
stækkað
álvers
samstarfsverkefni
fil
Samstarf
bez
tónlistin
sjúkrabíl
þokkalega
Óf
vinátta
sókninni
bónu
óút
##skerð
Öryrkja
##þjálfara
##lna
##ettum
##hyggja
góðgerðar
Alveg
aðalatriðið
fullkomið
##FS
##broddi
Eystrasalt
ólí
skipulagningu
##hand
Sýslum
##FC
mikli
amfetamín
kynntu
alþjóðlegt
Taldi
Skák
reiða
Heilsu
##ansanum
fremsta
##settur
Adri
147
tóbaks
Tólf
flúið
flugfélagið
##flú
orðsins
margvíslegum
Wilson
lóða
##enberg
##ople
##tillaga
myndbandi
listamaður
##séð
Ástandið
##sveifl
kröfunnar
sátum
Tru
Gadd
óperu
Aþenu
hugsi
brottför
Schengen
Meta
botninn
Mand
greiðsluaðlög
Örmerki
ánægja
##uger
Boðið
skoðum
##stofnana
##ráðamenn
Íslandsmeistaratitilinn
drögum
fet
fjármuna
eignarhluta
##otte
skutu
álitamál
Stjórnmál
Mug
málskostnaður
vélina
styrkleika
##svara
starfsemin
##laðist
veturna
##eitar
##ots
##oven
heillandi
Rauður
Árangur
rætast
hollt
##OG
##pall
##íðan
##unur
þókn
##shall
sendingar
bresk
Kínverja
heilbrigðiskerfið
Bloomberg
Senn
Dj
sérhæfir
hagað
##eskirkju
skýrast
Kari
skemmdum
glímt
teningnum
ástral
##itte
vöktu
gjöldum
##burðurinn
svipaðar
Chile
Garcia
Nína
Viður
stjórnvöl
##main
tvímæli
ódýra
Öð
kaupverðið
upplýsingagjöf
Huld
alln
##sgögnum
Þróttar
afplán
##sýki
##eistaratitl
sársauk
gal
samskipt
Framarar
sunnudags
reisn
vandað
sjónarmiða
Fla
hnút
##hlökk
mótmælenda
Bond
björt
##plötu
hæðinni
##vörpum
Íslandsmeistar
kynntust
Syl
##wagen
meiru
##drög
drenginn
böndum
ol
Almanna
000000
heilum
átaki
mættir
Krabbameins
##jungi
Salt
fjárhagsáætlun
ökuþór
sa
undirrituðu
##trygginga
Stefánssonar
niðurskurður
Keflvíkinga
Ltd
valdar
alþingismenn
miðlar
manneskjur
villandi
íslenzka
skáp
iðnaði
Vísit
ors
Food
heimsk
greindu
neinni
##skjól
hrunsins
einkamál
Silja
##zy
support
##sögnum
##ear
framkvæmdina
léttur
sjúkraflutning
Hlí
KK
Ll
viðhaf
vitlaust
Frökkum
##staðnum
ívil
Þorm
##bókasafn
samspil
skemmdar
Umræðan
hraði
krefjist
samráðs
landamærin
KS
fullkomna
dskj
hugðist
væntum
virðing
bókmennt
##alok
beiti
##laður
einstæð
troð
flutningab
fullnægja
Þórshöfn
blasa
Skógar
Örlyg
##rarnir
Kristjánssonar
rafork
##metið
Sunnudaga
##ameistara
Hátíðin
have
##df
##stæðna
eigninni
##TVR
Vígl
gluggann
fylkingar
íslenzku
stigahæstur
kúg
skaðabótak
Patreksfirði
miðlun
óþolandi
Sof
samfell
Góður
svörin
##jótum
raunhæft
bifreiðin
Neymar
útgjald
##ennt
óbreyttum
Fréttir
fasteignum
##punktur
Skálholt
Utah
sorp
sýningum
dýrin
fyndist
reiður
Umboðsmaður
##lætis
Hi
vítak
framlengt
##plön
Júlíusdóttir
ÁTVR
gestunum
Ásgeirsdóttir
##jari
einskonar
##dio
krossinn
mönnunum
málsástæðu
flugið
Skagaströnd
símanúmer
##halla
meistaraflokki
snilld
Vestmannaeyjar
synda
AD
fáu
Hrú
##framboð
Volks
##NAR
fótspor
##smörk
gagng
deildir
elskaði
einsog
vörugjald
æru
Íslam
##rur
Heklu
Hannibal
bráðam
Phoen
leiksloka
Mars
fyrirhugaða
##herinn
##shjál
Uppá
##attle
inna
Sjómanna
Bruce
Brit
reglugerðir
lykta
bli
veggja
þungar
##úbbur
Vopnafirði
##laganna
##jöru
tafir
heimslist
##völdum
heitu
##árásum
ákærunni
hruninu
greiðslna
##viðmið
Dönum
##ough
Námskeið
##ökuna
landnám
Norðurlöndin
bundnar
tom
inní
skáldsögu
Kor
sköpunar
trufla
##ance
mannlíf
raunverulegt
##hátíðin
fjárhagsstöðu
hanga
Flestar
Tung
Óhætt
##entar
orkun
##trygging
stúlkunni
vakandi
rjúfa
Súða
nýtir
byggðist
Denver
Jenni
þagnar
hást
Náttúruverndar
góðrar
Útlit
##verur
##fus
hands
hlýja
kunnug
##vopnum
##EG
bankaráð
símtöl
##fjörður
flugvöllinn
apótek
Mitt
Gig
Spa
Heima
Hrauni
##óni
Ron
litlir
Sla
233
mishepp
hljómsveitir
þingnefnd
##vinum
málm
himins
##bundnu
skemmtilegum
##hjóla
virðulegur
ósannað
aksturs
Lilleström
Bjarnasonar
Journal
söngkon
herðar
Phoenix
festi
##line
Ingólfsdóttir
hæða
slysum
útreikninga
Lagið
Gordon
Sigurjónsdóttir
ferðamál
fjarverandi
It
ónot
helví
biðlista
##ríkja
Hrí
hæstaréttardómararnir
talib
Mbl
alúð
jörðin
Nokkrar
Hátíðar
##skipu
fallegur
##vísindast
Reglu
óbeint
fjórðungur
Valgarð
seljanda
##fræðilega
glögg
spurðir
##ssamband
##ai
##punni
Volkswagen
fyrirtækjunum
ábendingum
Bein
leiktíma
##chel
##bogi
stimpil
bag
einkennir
UNIC
##kunnir
varðveitt
Spurð
Jacob
hægari
minningunni
Einarssonar
óveður
þörfin
Abd
330
bæjarbúa
vinnustöðum
berg
styrkleik
andrúmsloftið
##skemmt
Eysteinn
starfsfólkið
skorður
bókað
##sted
mynduð
Moyes
ættir
ríkisborgararétt
fiskeldis
meðgöngu
boðaður
##ðumst
riftunar
höfninni
sakamál
matsmenn
samgöngumál
Tillagan
umræddri
##örfu
efstur
nm
Fox
##flutninga
Trumps
##öskum
##cer
aðgengileg
dómstólsins
Hjalla
fa
vegu
þáttarins
Veru
sitjandi
##með
##ískt
tímamótum
ófr
##smar
##aklúbb
##vaxandi
leysti
gólfi
Johnsen
Borussia
óskuðu
Halldóri
Þorgeirsson
Stel
##ado
lántöku
æfði
alast
##mælt
yndislegt
Geg
##agötu
Johan
hagstæð
evrum
fararbroddi
##lönd
skuldabréfum
áfangast
samfylgdina
lestar
súrefni
deyr
gúm
##vörðust
verslana
malar
Byggða
##gerðina
útlitið
risið
##alands
forystumenn
fasteignarinnar
mjó
##okkó
alg
Eyrarbakka
neikvætt
knattspyrnustjóra
Phila
Anderson
Þykk
bakinu
lífeyrissjóðir
litli
Verkefni
meðvitund
Bert
tam
##kirkja
drukkið
neðar
##upphæð
Jaz
Skólavörðust
sakarkostnaðar
Lager
reyndum
##etz
Hva
Mary
##skoðunar
þægilegt
##hard
##éttu
innlegg
##hew
byssu
Dun
##ýrinni
Skaftár
Brasilíum
##fjöllun
kvikmyndagerð
réttinum
##hlíf
greinargerðinni
heimilisins
##sflokki
##xit
byggingum
158
framleiðni
Grikkland
snögg
fornleif
staðfestu
##önkum
##framlag
Öld
##hugað
réttlæta
Júgósla
Gangur
##angurinn
eftirsóknar
##mælið
Bosníu
Árnessýslu
aths
##ventu
Nam
Örvar
##prent
skiptastjóra
vanlíðan
Stjórnarand
UNICEF
Gunnarssyni
framtíðin
Bremen
Skark
##borginni
##sleð
##áfrýjandi
##reiður
##jk
##pakka
hlýr
Úti
burði
##boðin
##oms
Þorleifur
##úsalem
frádreg
##öðru
##iðnaðarins
##ike
Rec
Qaeda
óveru
árangursrík
mikilvægan
##hæfni
Ufsi
sýklalyf
grunnur
##stólum
kynd
áskoranir
eyrum
Eyrún
fjölmenna
##ánni
yngsta
ofboðslega
tökur
Capa
Jag
1900
skammast
ágreiningi
Jun
aðhaf
alheim
Sams
umsóknum
skaðabótar
ölvun
##pany
##vinnslunnar
friðargæslu
versnandi
Úrskurður
##ískir
##abraut
einsdæmi
þroskast
svæðis
Sæmundur
Gerð
ólöglegt
##átturinn
samningunum
þorra
framangreinds
168
nýút
ímynda
varnarleik
hótunum
##sviðið
óæ
séns
176
ríkissáttasemjara
##jótandi
EA
##spár
samnefnd
alvarlegri
Brey
vertíð
Brun
opinberir
Náttúr
suðaustur
Bd
1500
Rap
##ólfi
efnisskrá
Víetnam
##kins
##eyð
##ylli
rafor
tímaritsins
hávær
veiðimenn
Gareth
##eka
andar
Fjóla
Hjálpar
jarðskjálfta
blíð
Staf
samgrh
norræna
endurspeglar
rn
##stav
varðveislu
##mdi
##aker
##sér
húsfreyja
##stofum
nefndarmenn
kjúklinga
Gom
Hat
##hlað
yfirráð
kannanir
##alána
Evrópumótinu
##valar
dreginn
Þorvaldsdóttir
skín
Guðlaugsson
sjálfgefið
laxi
##öppum
látna
markvörðurinn
Eiríkssonar
ingum
djöf
##ullu
þjóðfélagsins
sannk
Guðbjartur
##ungs
útvegsmanna
konungur
dauðafæri
##arley
svipuðu
Blika
mikilvægustu
dem
##aku
óhóf
hafinu
framkvæm
markaða
vinnan
fullyrðingu
Un
útboði
##lanna
Panama
Hinsvegar
vænst
##oria
tilhlökk
##ritum
sannfæringu
endurnýj
röksemd
jákvæður
upplifði
skötu
##æfandi
teikna
##æsi
##edy
lýði
Hoff
ákvarðanatöku
Vaðla
viðburð
drepið
##ennu
##árinu
gleraug
stý
##sætinu
einræðis
úrskurðaði
##kinn
##skatts
Aftureldingar
Pil
bikarsins
Lundúna
umburðar
Avi
##enska
Aníta
sunnudagskvöld
##cal
eftirlitið
##sgötu
##afjörður
kannaðist
góma
lánveitingar
##niður
sætin
atvinnurekstri
tengdir
##hópsins
brjótast
##mal
stóri
japan
##jöldinn
##owski
Saddam
efnahagsmála
smál
árstí
flugvélum
heilan
##ísl
dómum
##ILL
Massa
réttlætan
##jend
peningastefn
##ser
aðlögunar
Alþýðusambands
Eimskips
##papp
Réttar
slasast
Est
Vett
bréfanna
##fyrirtækin
árásin
sparkað
sögurnar
Jónatan
bankareik
orðalagi
Ásgrím
umbætur
im
endalau
Drogba
hlustaði
hárrétt
ákveðinna
##borðs
##umaður
Skarkoli
siglingu
tapar
##otum
harður
prýð
##anema
ráðlagt
skýringum
Brann
kraftur
Gabri
snúi
duglegir
GU
##leidd
skuldav
##menning
AZ
töldum
stefnur
##sskipulag
##sch
##arfar
Hljóð
##elig
##íkjum
gamni
sóknarleik
##íðunni
##höfundar
landamerkja
Ólafsdóttur
illt
kókaíni
Ólafssyni
félagsráð
kenningar
##útgjöld
Gallerí
Jeff
Aðst
##vatns
borgarfulltrúa
samskonar
björgunarsveitir
##mers
ísinn
##hugsun
kún
Anders
fangelsinu
línum
virkaði
##hóps
læknisfræð
Birta
ávinningur
166
##conom
##flæði
einvígi
ójafn
tónlistark
Brynjólfur
##anne
tengdaf
rannsóknarnefndar
Djúpav
##fræðingurinn
##systur
Evrópumótsins
##vat
storm
stjarna
varaði
##78
legu
hæglega
Gutt
Sigrúnar
unglingum
einkenndi
##mes
##bilið
teiknimynd
orkupakk
innheimt
skólastjóra
voð
útisigur
Eiginkona
Vinnslu
Skipulagsstofnunar
Sparisjóð
almannatrygginga
hlutanum
##ingap
svonefnda
MARK
mennina
##yrkur
klárað
Hald
útfæra
##leikunum
Vertu
kynslóða
málshöf
164
##mail
launakost
ógna
Líbíu
##asala
##námskeið
augnablikinu
safni
##lust
misjafnlega
sæt
yfirlýsingum
##stokk
##tastjórn
Ágrein
tómstund
Álftanes
##skeyti
Suðurkjördæmi
##hýsi
Helsin
tvennu
turn
Svarið
##amagn
##ems
##ansen
Sjálandi
Rd
##ersey
landsliðs
skartgrip
leikskólanum
tvöfaldast
hna
##vitund
óeðlilega
ljósleið
fyrirrúmi
Benediktssonar
röskun
hentug
endurskoðuð
pressa
trúir
##oði
##ally
##rænan
Íslenskrar
##win
##túr
vörurnar
##ube
virkjan
bættum
stofnunina
ákvarðana
##vur
##angs
bílaleig
##kulda
töluðum
South
líkast
orðspor
##ahn
Brian
boðinn
TR
##ulli
tímaf
Skólavörðustíg
hvítum
Spurs
bel
ferðin
Milestone
fjárveitingu
##ysti
sjúkdómum
greinin
útvarpsstöð
frábærar
Craig
kafl
Huginn
Nett
##boll
merkir
Útlendingastofnun
aldir
ótrúleg
tónlistinni
hryðjuverkum
##mengun
Viðræður
Ýmis
Philadel
lögaðila
dægur
##waves
árstíma
sumu
brautar
Benj
##hersins
hugað
yndislega
vítamín
ísk
Davis
Brist
U21
íssk
##samningurinn
hafs
sæstreng
Frím
##erkjum
##mörgum
fótinn
óskipt
fullkomin
AK
kílómetrar
forsendna
dönskum
jöfnum
undrandi
##raður
kynferðisofbeldi
Stofnunin
159
Vinnumálastofnun
elskar
fyrrinótt
landamærum
##ugga
málanna
850
vímuefna
Geð
línunni
sloppið
Pólland
Erlingur
stöðvuð
##ito
##ottó
Seyði
stefnuskrá
Lem
##slagið
McG
höfnuðu
##tna
##sárum
SR
Reynslan
Pedersen
ríkisborg
lánardrott
Lengi
aðgerðina
samþykkir
villi
sýslu
sveitarstjóri
bikarúrslit
fyndið
atvinnurekstur
æðruleysi
íbúðarhús
kærleika
Ákæruvaldið
bringu
aflýst
mannd
breytingartillögu
Kara
##anefndin
Jökull
hlyti
Fjármálaeftirlitinu
þjónustan
afp
Blóð
##entum
háskólamenn
sjálfvirk
Karlmaður
úrskeið
hlæ
bikarkeppninnar
##falt
eintök
gröf
kredit
verklag
skotinn
þrítugsaldri
##alandsliðsins
Freyja
Dans
##jaldar
##svirkjun
##ddan
minningin
félögunum
##inja
eyjar
rís
baráttan
Argentínum
sjómaður
höfuðstöðvum
Benjamín
kna
##aráði
Bridge
ryðja
bilið
sjúkdóminn
vanir
##rell
Þórsarar
##PS
##leikara
hæfileikarík
Bandaríkjastjórn
algert
launat
kjósi
Hvíl
Stuttgart
Loð
skjölum
##svitandi
##öggu
Gas
viðkvæmt
stórsigur
vis
lífeyri
leikarar
##fica
Berlin
samstarfssam
##sgow
yfirlæknir
Leikir
Heiðrún
##astöðu
langri
kvöldfréttum
læknisskoðun
nudd
Sósí
##deildum
Torfi
farm
viðhorfum
Philadelph
tú
mótmælti
lífsleið
yfirskriftinni
##amannsins
dagskránni
hallar
Marín
##bókum
úrskeiðis
Jól
##efnast
##viðskipta
Höttur
##torgi
Magde
Glasgow
Þrjár
Tungu
takmörkun
Skyld
Nýsköpunar
##MG
##pól
Síðasti
##aníð
hlaða
Búast
útskrifast
utanríkisráðuneytinu
Benediktsdóttir
synjað
óumdeilt
flautað
Ips
156
Campbell
Zo
##bróðir
Persie
Sýn
Bristol
leður
##íkan
fangageymslu
framkvæmdirnar
##sgjöld
Víkinga
halli
aðgerðirnar
Þriðji
Staðar
kaffihús
hvatning
Væn
vildir
##keyr
##letic
##asölu
##orðin
refsa
Netið
##sfjár
lokaði
sjútvn
lögmenn
Slysavarn
eignas
sjávarafurða
plöt
Bessastöðum
sitjum
Sanchez
Sav
árétta
vegagerð
dómnefndar
þröngt
Rodgers
Milli
Té
##stæðari
Signý
stærstum
útskýrt
##skóg
##ökurnar
fræðimenn
##þjóf
##uli
##finnur
Sigþórsson
gleðja
sparað
vissir
Flugleiða
##eynslu
Árnasonar
nýjungar
hámarks
Capacent
Ingadóttir
erfiðir
teyg
morðið
##pandi
brautina
markaðshlutdeild
Orkustofnun
næstur
heildsölu
##leiðina
skemmtilegan
klapp
##skraf
misskilningi
##enga
##asvið
Hlöð
seðlabankastjóra
samstæðunnar
merkileg
skríða
Mánu
samtímans
Hjónin
##varpi
leiguí
dótturfélag
Jesús
einsöng
fortíðar
pdf
krökkunum
aðallið
Sjálfstæðismenn
sjóðanna
##kennslu
krefur
málatilbúnaði
##skonu
ökumaðurinn
hvalveiðar
bræðurnir
##keri
eldflaug
erfiðleikar
park
##anja
kaupmáttur
dramat
Veðurstofan
Mývatnssveit
##talín
##lögunum
Landsbjargar
völlurinn
troða
kassa
hverfum
sparnaður
Helsinki
virst
Össurar
##fan
svína
Krakk
Gon
Tyrkland
slæmar
Tíminn
ÍSÍ
Háskólinn
héraðsdómara
risa
Njarðvíkingar
Sjöfn
Tillaga
undanfarinna
Magga
vísvitandi
##leans
##svinnu
Minnes
innilegar
Hekla
Marco
##sstjór
fiskurinn
##ouch
vinnuveitanda
aðstandenda
húss
##útgá
##58
uppljó
##usar
vöruna
Ottó
SE
##hav
##reit
##izz
Jersey
systurnar
láninu
lögreglumönnum
Garðarsdóttir
Ul
kúlu
ósamræmi
neins
ökkla
##afoss
##réttir
klæðast
þykist
þingflokksformaður
kjallar
sambands
umgangast
brekk
skolla
##egundir
##arðanir
Mílanó
skoðaðar
olía
##margar
##kvót
##bundnar
staldra
Jerúsalem
Ny
##ppu
##aflutning
spenntir
Lucas
169
skemmstu
glatt
tilveru
Kynn
dálí
hávaða
vanalega
skiljanlegt
ódýrara
veiðarnar
éljag
Keppni
eignina
Danska
Írans
vöðv
##aldags
##viðræður
ítrekar
Berlus
Aðferð
tær
##slugetu
##frv
##settum
grjót
Lyn
samsvarandi
Fljótsdalsh
tromp
Sog
höfðinu
##skák
matsbeið
skattrannsóknar
##bley
##mdu
##ipl
vantað
ísh
##falls
##vilja
verkfæri
##blæ
minningum
fyrirstöðu
##amarkaðinn
stríðs
áburðar
verkfræðingur
hrí
þjálfarar
Starfsgreina
kristni
##hætta
ólíkra
forkaupsrétt
umdæmi
genginu
umfangsm
ástfang
stend
Hvammstanga
Berlusco
##dæ
svipaðan
slysi
stjórnvalds
bandarískur
býtum
Möl
útrýma
Champion
##beins
atlögu
fasteignasala
SG
##lítil
##ræðunum
Gey
mannréttindum
botninum
sigldi
Cov
Jur
líkamsrækt
Jong
bandaríski
Rán
glat
Eigi
Nanna
ástríðu
afköst
undirrita
örvænt
sjónvarpsstöðvar
skatti
##bylgju
Mort
1917
Orleans
Jóhannessonar
samin
matsmanna
FM
Leonar
gróða
hnatt
sjúkrahússins
##yrirtæki
hnú
óvenjulega
komuna
##issan
##rúg
Fe
strákana
viðskiptanefndar
bótaskyldu
kjarasamningar
##vill
hægja
names
bikarmeistari
hinsegin
iðnn
heyrast
##hagnaður
bíði
Skemmt
leyfilegt
leikkon
fríi
CA
ns
áfrýjað
Minnesota
Flateyri
fyrirgreiðslu
öruggum
##afélögum
Nelson
##bregas
sjávarútveginn
ÁK
Kristianstad
norskum
áhættum
löggjafinn
verslunin
Singap
misnotað
##UND
skapaði
göngust
Athletic
Raufar
slök
kynningarf
420
Thelma
Þúsundir
##asal
Landspítalann
akad
pref
##ummi
Ægis
##lauk
láglaun
Georgíu
Mörgum
tilteknar
##fjölskyld
##ýtt
horfin
Leifsson
Eldri
innanlandsflug
Sumarið
tileinka
öruggur
##hrygg
##tube
Win
##blás
Finnland
andvígur
kröfðust
orðanna
pönt
skrifstofur
millirið
##eytingar
##rufl
Hverjir
Heimili
áskrift
##és
endif
##broti
stórhættu
áherzlu
drykkju
fyrrnefnda
Kvöld
þýð
miðjumaðurinn
kansl
up
Hofi
sprengi
fylgdust
verkfræði
sakað
listum
Stjórnin
forvarnar
skorts
Cav
jafnir
rekstrarf
atvika
Assad
Frík
hrikalega
Magdeburg
##bury
Kane
éta
höllinni
##ct
heimsækir
ófært
##STA
óbyggðan
Airwaves
Jökulsár
blaðamanna
neituðu
Áfrýjandi
Fjölskylda
##roy
Þinn
segði
aðildarríkja
markaðsvirði
nýti
borgarráðs
kröfuna
samstarfinu
tímaritinu
Mall
aðalkröfu
Charlotte
Jennifer
köllum
þínar
óhefð
ferðaðist
Brexit
sólarhringa
##ua
tryggður
Howard
##bab
skóm
Stærsti
Hazard
Nóbels
Ek
málflutnings
sögulegu
##ekkt
vörslum
stjórnarandstöðunni
##svæða
mannsk
heimilda
bakka
##amálið
bókhaldi
Prag
##málunum
tengst
hrjá
##sfélags
þrem
mótherja
stúlkum
##sýnilega
Smárason
Erlingsson
Ipswich
upprunalega
yfirgn
hugum
lifðu
hler
vandræða
480
ónæm
##slunum
atvinnumálum
Katal
partí
ríkisstjórnir
##ábyrgðar
Ther
leigus
framförum
annaðist
Ómarsson
##jaldan
Vilja
Forráðamenn
##ættinum
fasteignamat
##ströndinni
##brotnaði
##reglunnar
Þráinn
nágrannalöndum
stenst
sunnudaga
Írlands
fem
hugbúnaðar
##wan
styrkjum
forsetaembætt
##ráðuneytis
mínúta
##phis
fyllt
##arkmið
málsatvik
flugvéla
skemmtiferða
meirihlutinn
viðræðurnar
leysir
##vísinda
##öguna
##æfing
GSM
tenn
tilmæli
skjöldu
þora
hrósa
hlutskipti
sóknarprestur
AS
kærður
ósjálf
sjötíu
dásam
skugg
##vistarf
rólegur
fullyrti
fínu
##skatta
lausa
báturinn
ráðnir
vön
jakk
sæng
gráta
##örkum
lukku
varhuga
skáta
lífríki
semsagt
Koll
launahækkun
peningaþ
ráðamanna
spreyta
sérhver
hljóðaði
heppilegt
toppinn
Hf
Efri
skemmst
##byssu
þríf
##lagður
salinn
Finnst
Gerðu
venjuleg
uppfær
Disney
aflaheimildir
frelsis
gult
Tryggingastofnunar
þrífa
samkeppnislaga
Reiknað
Kólumbíu
tuttug
mánuðinn
umfangi
baðst
Count
stelpa
nak
birtur
Ísafjarðard
lekið
##anefndarinnar
borgi
Keppnin
Hugmynd
íbúi
##horninu
Platan
##cott
umræðuefni
Sigtryggur
##þús
kjördæma
##ege
##ríkjum
slökkviliðsmenn
mótað
gerða
klí
Madríd
hjónabandi
tiltekinna
hátíðlega
Lie
##veldur
Félagar
þreyttur
Staðfest
##ubifreið
gjaldmiðil
Vátrygg
##ipe
Andrésson
##mánuðum
niðurfellingu
Flensburg
hverfis
örn
##olin
markat
##amba
##læknisembætt
Möðru
þrek
##aliðs
söngkonan
Svartfjall
fastan
undirrituð
skuldb
uppreisnarmanna
Ernir
##GUR
Ófeig
##rekki
heimur
vökv
gengin
##lo
Norrænu
kennitölu
##hornið
japanska
raðað
kappakstur
##annsókn
##fjalli
##smiðju
lögreglustjóri
Korm
enskum
samræmd
prefix
matreiðslu
tengdur
aflahlut
##lake
yfirskriftina
hálfur
Nu
ákvörðunina
bandaríkjadal
ákvarða
ríkisborgara
haldast
bættist
namespace
föngum
brut
hjúskapar
##línar
flat
##dró
##ökunni
##aðstoðar
Byggðastofnunar
##79
lím
alþjóðlegra
tölvuleik
Lykilorð
fjármálakrepp
ómetanlegt
ákveði
herfor
Traustason
##JÁ
ritar
skráðar
Þróunar
úrvalsdeildina
eldsv
##athug
Kö
KAF
xml
##purnar
##arækt
kjörskrá
##bana
FBI
torf
býðst
foreldrarnir
ávinning
Christop
eyðilegg
ótil
##faðir
kúr
þjóðhátíðar
greiðslustöðv
Fjölmiðlar
vika
tékk
fjársvik
Arnþór
Íslenski
stjórnvölinn
Def
mok
barnabörnum
##avör
versnað
tónleikarnir
drap
þrýsta
GAM
##breytni
nærliggjandi
sviðsstjóri
##kjörinn
Eiríksdóttir
##smára
Vera
##ode
##kvenna
sjáist
IMD
fordóma
neysla
gestina
börðust
Memphis
##hækkana
##emas
##bragði
áhrifamik
handtekið
hefðbundið
vs
##ynnum
Leikkonan
klauf
þjóðarbúsins
##bað
viðsem
##blo
Sko
brúa
brutust
herferð
umhverfismat
Fréttastofa
Júlía
útvarpi
óæsk
##ender
siglingar
Brekku
upptæk
##right
kallaðar
könnunum
ítarleg
Hitaveitu
yfirliti
Þjóðin
dagsettu
##snámi
Suðurland
Vestmannaey
ilm
kröftug
brei
##tínu
grafið
##eifar
fjölbreytta
yfirheyrður
##akeppninni
hungur
EBIT
##pláss
efnahagslega
skattsvik
Arctic
Jónu
höfuðborgarinnar
sambærilega
kærustu
ögr
byrðar
vopnum
##búðirnar
##isse
gamaldags
Marokkó
vitnar
átökunum
Marshall
##shi
Eyvind
Matthew
aðdáandi
Vettel
orsakir
gagnagrunn
##mátt
Kolbeinsson
##atvinnu
##nuðurinn
##virðingar
##vand
eyju
fangel
Roll
Finna
landsbyggðar
stórri
neðanjarðar
Evrópusambands
sameinuð
##hæfu
sir
##röf
Bobby
##endurskoðun
afurðum
##vol
háður
hættan
JP
fjárframlög
þingflokka
ölvunarakstur
##75
##ugl
rúmt
##afjöldi
stefnendum
samtölum
Tyrkir
þjóðunum
norskra
##lýsa
framkvæmdin
##ána
Championship
launagreið
##oa
Kæru
frásagnir
virðu
þrýstingur
Fljótsdal
bílarnir
síga
stjórnarmanna
frambjóðandi
íslands
kröfuhafar
##rison
lofar
##fyrirtækisins
aðferðafræði
dvalarleyfi
seinasta
hjörtum
stjórnmálafræði
samþykktur
Dalvíkur
jóga
ósig
steð
meintum
stuðst
fremja
tryggingagjald
##asjóður
##shor
##samkomulag
North
##birt
fjölskyldumeðli
Seattle
jafnmikið
fjallinu
hljóðfæraleik
Christi
samanber
nefnda
ólögleg
Fjármálaráðherra
Níel
karlaflokki
framleiðenda
háir
fimmtudagskvöld
keis
##bíllinn
Lárusdóttir
gallerí
heimah
##línuna
efninu
löggjafarþingi
lögmæti
Fákur
orti
Morth
Luka
aukinna
gáfum
##vefur
McD
ákjós
íslenzk
Líndal
##skamm
fyrrasumar
ábú
hagvaxtar
fjármálaráðuneytinu
nýlegri
Russ
virki
##byggðarinnar
Brei
flytjast
álagningar
breiða
##fing
eftirstöðvar
útskrift
myndbands
ógilda
sturtu
Lúða
##alistanum
reiðubúnir
Morthens
Vinna
dæla
Kauphallarinnar
síðum
athafnir
setningar
##ved
##ötn
teignum
einstaklingi
Jay
Syd
AB
frásagnar
reiðubúin
Dd
Vandamál
samdráttar
Sigurjóns
passar
meistaratitilinn
voruð
##ækkunar
almennan
Verðbréfa
söngur
Styrmir
varakröfu
Philadelphia
Ci
réttara
persónuleg
hafir
flugfélög
##aflokknum
líkamans
##leng
Mog
1915
##enstein
Tutt
hluthöfum
##ilar
skjálfta
athygl
urn
félmn
búsettir
óað
##munna
Greg
Id
Grant
hlýt
##oyd
##verkstæði
toppliði
Hjalt
Björgvins
föls
##hönnuður
sárum
hagsmunamál
hótelum
samdrætti
Bg
skattgreiðendur
hraðaupp
Hreinsson
Walker
Virgin
undankeppninni
fíf
brand
fastar
blau
undirliggjandi
sniði
fiskist
jóg
Mas
##sætt
Hughes
gatnamót
sýrlen
tilskil
##miklu
Neville
Pálína
##manuel
sjómann
fyrirbyggja
##jöra
aflands
hjúkrunarheimili
Vatnajökuls
Samfylkinguna
vistaður
Straums
varðað
Fjórðung
Lovísa
##skeyt
óendanlega
Dennis
Arndís
##sír
Embætt
jafnaðarmanna
hugsjón
##rúgvæ
Ráðuneytið
##rifi
Jói
þyrftum
borgarast
norðvestur
##ársdag
félagslegum
svín
tína
##konum
réttargæslu
##lindir
##vætti
##OK
Úrúgvæ
##hreyfingin
almennir
varnarmaðurinn
útkoman
efnisleg
iðgjald
Jónasdóttir
þorpinu
fjárlagafrumvarpinu
samkomu
fjhn
alvarlegu
alvarlegra
##zer
Póllands
þáttar
Einhverjir
dularfull
##avald
Fékk
Jóhanni
vaða
lokakeppni
Eflingar
##hringinn
farþegi
Heimilt
notalegt
reiðufé
Englendinga
meintu
fv
Ungmenn
eignarhaldi
Poll
##áttuna
þjálfaði
##ýnt
##eisla
##bólu
brúnni
Máls
##31
340
bu
maraþon
vindi
sækist
##ator
úrskurða
##gra
liðnar
##ráðherrann
framleiðendum
Wind
deilunni
þingheim
lengdar
frumkvöðla
Berlínar
söngkona
Baldv
senti
verkefnisstjóri
rift
bolli
viðskiptabanka
sóm
ren
starfsstöð
##tektar
brosir
plöntur
microsoft
áfalla
Mjólkursam
jafns
Varin
##fundinum
útileik
kokk
pæ
##míl
Austurstræti
Sigmundsson
Fí
Læg
Tómasdóttir
##aux
Fjall
##ida
mánaðamótin
skemmtilegri
##cini
yfirburði
##smíðar
hvorn
lausnin
ökurétt
##skipinu
tíðk
##tein
##stæk
1916
IK
Bus
lægð
austurrí
skoska
hreina
Sið
##svanda
##ími
##ogna
hannaði
Drífa
fartöl
keppnistímabili
Sark
heimalandinu
maga
dansi
beitingu
Covent
miði
ýmsan
Viku
skoðanakönnunum
viðskiptafræðingur
æfir
##setu
##tegundir
##olti
fatlaða
síðla
stöðugleik
skipstjóra
forsætisráðherrann
háttur
Francisco
##pappír
##veislu
tilfinninga
áfrýjun
Framkvæmdir
Kelly
##afat
SAM
Safn
##eldum
Flók
##samninginn
leiðara
fimmti
380
útvarpsþ
Talsmenn
##liðs
almannatrygging
DNA
hættulega
##skinn
##verkefna
Seðlabankann
Bragadóttir
sorgar
##kaupum
##klah
##minu
##slysum
hleypur
tortryggni
##rundv
##stæki
lager
hélst
óþægilegt
schemas
hist
reglugerðum
Bad
atvikinu
##jandinn
Vandinn
Gaman
Víkverja
Esk
húsaleig
kynþátt
Myndirnar
kollinum
meðákærða
herberginu
Tjörn
fullorðnir
Kjalarnesi
Ými
ætlun
gríska
trúði
Marie
hekt
##eysu
##smiðjan
Nordic
Eignarhald
##jallað
##ÉR
Steina
Fried
##puna
skiptust
##þreif
brygg
##þraut
##ilegs
veiðit
Köl
synti
Web
sérf
##sveiflu
hvors
Oklah
gleymist
Vita
brýtur
Nýjasta
Vélin
gilti
##ists
244
stúdentspróf
kæri
gufu
##nunnar
olíul
iðk
glas
Hass
rösk
##afjölskyld
Sóm
hafsins
fríverslunar
##eter
komizt
##skennd
##rásir
##menningu
##DÓ
stal
leist
innleidd
##akstri
aðall
##saum
##forseti
Fjárfestingar
Málf
##afrum
afs
heimilislæk
Íbúðalánasjóði
##ssjúkra
ER
##riflokk
##aborg
Rúrik
leikstjórinn
alvara
framleiðandi
meðvitað
##safnið
kröfuréttar
Kil
hófi
Hild
IC
##ýó
reki
andi
listamönnum
Ásgeiri
##jöfnuð
viðskiptanefnd
1905
flutningur
áhugamaður
hrifin
Rg
fjarskiptast
heng
##stríð
Próf
fjallið
undanskildum
jarðvarma
##stekjur
Katla
úrvinnslu
fundin
stjórnmálamaður
stöðvarinnar
##ato
Grænland
Kveðja
Buff
Króatía
þjón
smitast
Kate
Slóvakíu
talsverða
Þróun
lögfræðinga
Svanhildur
Giggs
##enne
##sviðinu
kjörtímabilinu
biskups
markar
Kröfur
Robbie
Mjöll
##hlutur
vinnumarkað
kosin
Gul
##ddy
Þjóðverjum
hreinum
fjárhæðum
Int
##endan
hagkvæmt
Daníelsson
VF
losunar
Jeg
svík
þrauta
##herjinn
raunveruleika
Vetrar
##lausri
Balot
láns
Hlöðver
nefndu
ævintýra
byrjaðir
##iki
Fabregas
umsam
landeigendur
sveitarfélags
bandalagsins
bernsku
1914
Beint
310
Brasilía
Golfklúbb
Abu
hefðbundinn
stökkva
misskilning
Vesturbænum
tvítugur
sætir
hjörtu
Aðgangur
##ør
þáttanna
forsetanum
útgerðarmenn
Sjón
Stærsta
brennist
Víð
Forn
krakkana
raunhæf
persónulegum
forsetann
framgangi
##atæk
Lop
##fil
Bændur
sölunni
kókaín
##þjón
einkennist
##nauðsyn
##sheild
svipaður
kík
Hjaltalín
ársreikninga
bjóðum
##row
##vörslu
Hljóm
ákært
dýrmæt
tilnefningu
óheppilegt
##frið
áttust
Gyða
gar
Kristjánsdóttur
forsetaframbjóð
Tar
radd
gamal
Gild
Árás
##búðunum
Theód
lömb
veðurfar
notendum
Dc
##egund
gersamlega
gjaldeyr
varaforseti
##élt
Heilsug
##varinn
##ökuð
þungur
##forseta
Símon
bókmenntum
staðfesting
viðbrögðin
##ynningu
sundi
höfuðborgarsvæðið
sambúðar
##svall
lífeyr
kosturinn
hnit
leikstjóra
ætlaður
rifið
Þórsson
fagnaðarefni
sterkara
hræðslu
##stofninn
töflu
úrskurðarnefnd
rithöfundar
##hefð
úrskurðinum
tæpir
gagnrýndur
Finnbogi
Ýmsar
##alo
fána
##anem
gamalli
Úlf
dyl
þingflokki
svokallaðri
flík
Laxá
##skráningu
Voga
##borgun
##ekstri
##össum
##ekist
stórfelld
dómkröfur
##kasso
endurkomu
##cle
##aman
þjóðkirkjunnar
samkeppnishæfni
Balotelli
sími
heilbrigðismála
Íslendingurinn
fundaði
Finnar
áfor
felldu
menningarmál
ráðstöfunum
##avax
Moore
##munda
afleiðingarnar
grasi
bikarkeppninni
hinstu
Selma
örstu
da
Elmar
Lyfja
##bylt
lífeyrissjóðum
##critic
fyrirspyr
listir
vatnsb
sofið
aelig
skamma
aðh
óskýr
Perú
formleg
ölvaður
útúr
KP
##66
samleið
verðl
##uppbyggingu
Stabæk
föl
riðils
Hudd
##sstaðar
Steinsson
útilokar
##EY
Tókýó
húsgögn
jákvæðum
háskólanám
Elva
##smálinu
Joseph
##ldir
ómissandi
Malas
Landssamband
sveiflu
##smálið
landamær
skynsamlega
þrýsting
Mick
eggja
endurvinnslu
munt
embættismönnum
##skógi
##fæ
##alagabrot
Gunnlaugsdóttir
##skröfur
##ales
Kard
eftirlifandi
##afood
Munchen
Ungling
##bátar
leystur
Inkasso
stjórnarmyndunar
bregður
frambjóðenda
sterkustu
##arkirkju
Alk
áfrýjaða
##bay
##ÓN
##ugla
tímamark
evrópskra
Euro
##ento
herbergja
hrósaði
flokkast
Ágústsdóttir
afnota
Herjólfs
##verz
vélarnar
Björgvinsdóttir
##eks
snjókoma
sporum
Athugasem
##ðinu
ökumann
ráðs
Einhvern
##skuldar
Atlan
##bóka
blaðamanni
hitinn
##arkeppni
þvag
Willum
##spr
fleiru
frjálsar
feit
hryðjuverkamenn
##ray
Aaron
skipaðir
eignarréttar
vörnina
teygja
##ira
##engur
Gréta
vaxtalaga
hvatningu
ter
lögmanni
gi
fóð
##markið
##lífinu
##tánda
Miðjum
##mælandi
##unnum
veltur
Bretum
##hlutfallið
brúna
hafta
153
##ince
##afær
Bann
HSÍ
brotnaði
stelpu
kanadí
liðnir
Ön
##jev
##skorts
gren
snemmt
umsögnum
þurrka
ríkissaksóknari
löggæ
Séra
AL
Óvíst
úrræðum
##tíðum
feik
gestris
örlag
lækning
deiliskipulagi
ouml
slúður
Slys
##haga
##ahlut
grimm
MR
Myndband
##ORG
Stam
Agu
le
umráða
Hannover
Almar
##búðinni
oddvita
##rannsóknir
erlendan
afskrifa
One
Gísladóttur
tilveruna
##laginu
sviðsljós
batt
290
Verðból
##hálsi
Hallur
yngra
viðkomu
umræddar
Sovétríkjanna
##gæði
##skiptaglugg
##skála
Rekstur
##liðnum
Runólfur
ummælin
Tröll
umferðarinnar
Möltu
Hein
##gangna
Roberts
meginmarkmið
ættingjar
##ektum
upphafið
Færeyingar
##heimila
hótelsins
sungu
##verslanir
##ssvið
samninganna
Bjartmar
framangreint
##anlegir
bankastjór
Inc
umdeilda
Barry
skattleggja
mánaðarlega
my
deilda
José
Oklahoma
Allan
Landsbankann
helzt
Benfica
rammaáætlun
teldu
mótmæltu
refsað
sigrar
merkilega
Bæjarráð
Djur
Long
skólagöngu
151
Gullk
veikt
lykilmaður
Stuttu
skyndi
will
##SL
Mogg
##hjóli
gerðust
##árri
##ningarinnar
Dröfn
verksmiðjunni
##smessu
235
370
upptökum
tilhneigingu
##emb
Sac
vefinn
##aleit
sálar
sambýlismaður
meðalstór
efnahagsráðherra
##house
lífeyrissjóðirnir
furða
##attar
takti
Listasafni
##þroska
##klæ
staðartíma
Grindvíkinga
Econom
Atlantshafi
##obi
leikfimi
ættleið
eilífu
##AA
dýrara
gengum
##metrar
skógræktar
stik
##atið
Samvinnu
ferk
Ella
##frjáls
##afélögin
öryrkjar
slu
óp
líkaminn
fyrrgreindum
##bao
snjókomu
ed
hönnuður
##kassa
skína
framsögu
milliland
hlutlæg
Skýrslan
seldust
Lor
##aðstaða
þáttaröð
framsæk
Austfjörðum
ríkisstarf
fjárlögin
vönduð
kulda
rótum
Bíla
gagnsæi
sannfærð
jólagjöf
hryss
kvæði
##vöxtum
##kár
##annsóknir
##nesty
leigt
lófa
krabbameini
málsástæður
einkenna
kjarni
##nat
##ítí
##ælandi
##auti
##eglur
##jást
fjármálaáætlun
##efanum
bókmenntir
Geysir
hornið
Honda
##ræðna
Framsóknarflokknum
Stokkseyri
Kjartansdóttir
verulegan
##ould
mótmælin
##sóknir
##farnir
frábærir
Læknar
Velta
##sfélagsins
fullorðinna
mikilvægara
samstarfsfólk
braust
##þakk
staðsetning
dráttum
gjaldi
takmörkunum
##ilög
landsfundi
##ostur
skorin
Lögð
efnin
##issi
frétti
spilamennsku
veitingastaðnum
pap
rúlla
ströndum
laum
##afyrirtækjum
leiðréttingar
215
sætunum
spek
##pað
##korni
jók
lykilhlutverki
##stundis
reglan
veðskulda
sambýliskona
##veigu
##lagötu
grand
keppnum
stígur
stíft
lapp
metnar
Ig
##agli
sendinefnd
rakti
drógu
kvartanir
Börs
Metacritic
undirstöðu
##orðinu
##rabbamein
Verðmæti
Drag
Charlie
##tanna
Kórea
hugsum
##vaka
Birki
Könnunin
fersku
##bai
skellti
neðst
Ómarsdóttir
Boris
Sarkoz
Sti
##sstyrk
Sennilega
##munum
##alíu
eldis
verðtryggingar
##ókus
ávarpi
##breið
Valsson
sjómíl
Fall
##epend
Grikkir
Mesta
forystuna
kakó
vaktina
Finnlands
parið
kal
##samtökum
endurrei
knattspyrnusambandsins
Sveinssonar
Watson
blöðin
köku
stak
Daðason
æðar
verald
stjórnir
þrettá
framsetningu
##verkin
##esa
íslams
Svör
Arm
##sýnd
framleiðanda
Viðskiptablaðsins
Elli
forsvarsmönnum
Fróð
157
Reykjanesbær
riðlakeppni
##mas
lánas
beinar
##félagar
jólunum
nákvæmni
svakalega
vot
þakkað
lat
umdeilt
Lífeyrissjóð
##marnir
borðað
##smiðjunni
stétta
geysilega
vetr
hálendinu
síðuna
kjörnir
verklags
Reykjavíkurflugvelli
Félög
Ole
beygja
ferju
##skyldur
Coventry
titlinum
Öræ
##æll
##rekur
##korta
Back
##ækur
fjárfestir
Svala
léleg
rýma
skop
Bark
undarlega
##hagsmunir
rökstuðningi
sífell
innviði
Erfið
##einingar
pólitískar
Vogum
Þeirri
fangelsisdóm
Rif
stríðsins
fljóta
spjallað
Siggu
meiriháttar
Heimis
##ratt
Deuts
Amnesty
Lækn
Silfur
##guez
##öðva
bestur
fyrirlestra
##ræðinu
##avélum
gjafa
##tasar
vörubíl
Elíasson
Grett
##verðri
##ilo
starfsæ
þátttökur
Þorkel
Sher
efnileg
##öllurinn
hugsuð
formúlu
##reikningur
grænu
nyr
uppnám
nýkominn
Helsta
nýttur
Ölfus
Fáskrúðsfirði
##pítala
##RN
##astofa
##alaganna
##amati
##ystkin
##ílómet
##abaráttu
Magnea
Basel
vakta
stjórnmálamönnum
leiguhúsnæði
Hauks
formlegum
Hussein
ellefta
örugga
Lukaku
Sigurvin
Þessari
umfangsmikil
kvörtun
greiðslubyrði
Stew
dagvinnu
Krí
útlendingum
gjafsóknar
Skessuhorn
ströngu
KAFLI
162
##rækja
##varður
prófað
##greinar
Kennarahá
##öðin
félagsheimil
##sæld
unninn
##nanir
eintak
hlutverkum
##atal
##edia
fullar
lífsleiðinni
æða
skýjað
Íslandsmótsins
Fimmtu
##partinn
alkó
lækninga
Pedro
möt
yfirborðið
Kirkjubæjar
næmi
##reglunni
##dinese
goðsögn
eðlilegar
##arfjórðung
blasti
tól
stan
nágrannalöndunum
kjaft
Sz
prýði
svekktur
breytingartillögur
##cho
matreiðslum
krónuna
CC
Helm
Pablo
##ddie
matargerð
oss
Sundsvall
Rúnars
kolmunna
forna
handritið
hliðsjónar
hvíli
snjóflóða
Heart
##skunnar
##sliðinu
umhverfisvernd
sálfræðingur
ónýtt
tilkall
skotin
veitingahús
Udinese
tilvalið
vetra
samningsbundinn
félli
Salah
Hod
##skera
skaðleg
samstarfsmenn
Vör
pan
Naut
sumarhús
dreifik
sentím
Flor
rökin
úrslitakeppnina
Síðdegis
Valla
kvitt
húsakynnum
Fljótsdalshér
aukningin
fiskif
France
gleymast
##neski
útsendingar
Ólason
eftirspur
Dómkröfur
aukaverk
öldinni
##skiptal
brotinn
hrossa
##tter
tillagna
##alausu
vinninga
##reppa
Sunnudagur
hugrekki
drengir
morgund
Neil
##málar
fáein
##imi
##bland
náttúruham
Mind
sýnum
##vísunar
kindur
Stjörnumenn
##jöfnun
margvíslegar
fæstir
Ásk
skipasmíða
##góð
útkomu
verks
##ussen
Kra
Ibrahimovic
Bíldu
Ríkissjónvarp
bragðið
vítaspyrnukeppni
dagblaðsins
hæstaréttarlögmaður
daglegt
vonumst
Rams
löndin
sjálfbærni
áfrýja
Vísindamenn
##brotin
##möguleika
jöfnuðu
Úrvalsdeild
Júgóslavíu
samstundis
eldhúsi
mögulegar
##smorg
Borgarbyggð
kostnaðaráætlun
fjármagnstekju
fatnaði
##IP
inngrip
lykillinn
tæpt
hringnum
Þjóðleikhúsinu
samsteyp
##skin
einhverskonar
Gunna
##iu
umönnunar
##herferð
##sfélagið
Frekari
mótvægis
óhræ
fjh
##plötur
Skilyrði
teymi
fletta
stjórnarandstöðuflokk
flottur
1913
##meið
skyndis
HIV
##100
sælgæti
Albaníu
ódýrt
fjárln
Vé
eftirlitsnefnd
kjördæminu
farvegi
##álka
##löggjöf
##væðum
borgaði
hreinsun
Bilbao
Zid
##ener
##lendu
Pitt
Samherji
atvinnugreinar
##sól
Franz
hagræða
##asy
eyja
viðskiptunum
ævinni
##guð
Marcus
##mó
##ics
Fræð
sakleysi
uppskeru
Mohamed
útbreidd
umhverfiss
Þýska
Parker
glæsi
##jándu
##ínan
örmum
óþægindum
Imp
öryggiss
verkefnis
kæranda
Hard
##jólfi
Fit
alvör
##takendur
Day
##kring
álitið
seldist
Skandina
##elsið
lokuðu
friðsam
yfirhönd
ferlinu
##sferli
veggi
##avatn
færðist
Starfsemi
##anu
##MENN
atvinnumaður
óveð
Landssím
keppendum
Úrslitin
Magnússyni
Rodri
kyni
ámæli
Hjálmarsson
Festi
hljómsveitar
##tegund
bág
Tomas
##HL
starfsloka
hlýnun
einkennum
##eistaratitlinum
Opinber
##korn
heildarf
eignarskatt
##alagi
sveigjanleika
Pir
##úpu
hryðjuverkaárás
forsetakosningunum
Ásgerður
Elliði
Atvikið
rúminu
kjaravið
Javier
rafhl
fjármálafyrirtækjum
klippa
tungumálum
##svir
Miller
##eppa
Frosti
drengja
skáldskap
Jemen
Árborgar
##seyr
gleymi
plús
Center
EBITDA
verðtryggð
Eiríks
##sfræðingur
Kyrra
##aha
##eðin
studdu
##setningum
Bergþóra
kæli
Auðunn
heitinu
##reikninga
umferðaróh
Vaðlaheið
##elf
##skjær
húsnæðismálum
eiginmann
bílunum
þolir
bankahrunið
hektara
Bandarísk
byltingar
álverið
viðburður
tölvum
Vladimir
Ösp
aðalstefnandi
Eigið
Evrópa
##línur
##garður
ritari
nutum
sparisjóða
verkalýðshreyfingarinnar
neyð
##barða
Jafnréttis
Framsóknarflokkinn
Gonz
óx
ljón
pred
slæmu
##berja
minnisstætt
Skarphéðinn
ÉG
##sterk
##skjara
##heill
##blóð
lántaka
Plan
skips
bjarta
hegðunar
félagsmið
samanburður
##amannanna
rot
##ræðingur
##eljandi
Spánverja
arfl
sjúkrahúsum
leiðarlokum
LH
uppræ
##æðingu
Roman
Arngrímsson
Háskóli
dauðann
áreiti
elsti
kjördæmum
##agarðinum
áratuginn
náin
bæn
framleiðsluna
Ye
##afólkið
##nafn
gildum
Ferill
bíta
götunum
miðuð
Vinsæ
ógrei
1912
fréttaveit
endurhæfingu
minnt
tvítugt
dj
flokkun
krónunni
Undirrit
##fræðingi
fjöldinn
skammti
Borgin
Talað
óskiljanlegt
ryð
##radal
##úlpt
virkað
vorin
##sep
undirritaði
reglunum
portúgal
lína
þunglynd
##anlegan
svif
ráðinu
opnir
YouT
Bb
hitastig
sýslumannsins
Báðar
Leigu
mannauð
Laugardagur
ævina
##arland
Moz
##punkt
Oddssonar
veiðiley
Lítil
hvíldar
##frestur
steins
rifj
sparnaði
##afundinum
Svíum
aðfarar
efnahagssvæðinu
Dh
Tekju
flöt
áætlar
sveitarstjórna
##könnun
landsliðsmann
haustin
dvelur
##þjóðast
göngut
Gangi
##fundum
##málanum
utanríkismálanefnd
skilaboðin
Veðrið
##ýrum
fjármagnað
##embætti
fullyrðingum
rökstyðja
tengir
Frábær
Music
ósköpunum
ljósmyndara
vitnisins
Clipp
orðunum
viðvörun
Wer
reknir
##stökk
nálgunar
Völsungur
##nst
orðs
##akonur
áætluninni
fjós
##lestur
##máls
yngsti
##skipting
undur
frægu
vinsældum
nemanda
samsæri
módel
ástands
ljóðabók
##asil
jóladag
217
göf
sársauka
hugurinn
menntast
##myndun
##þre
sigursæ
ítarlegar
Tryggvadóttir
sóf
##suðu
##koti
YouTube
Bið
forvarnir
áhrifam
##vísýr
líkamsræktar
Alcan
fréttastofuna
Sveinbjörnsson
##edad
Óttast
vinst
##amyndir
Om
##asst
afnumin
samheld
Norðmönnum
hjartanlega
þjónustunnar
óviðeigandi
##88
Úrvalsvísitalan
##íumenn
hní
þjást
hugmyndafræð
##frysti
Einarsdóttur
Grensá
##arfær
sögusagnir
stjórnarflokkarnir
Solskjær
Borgarleikhúsinu
Wom
##vall
sinu
samskiptin
Eyjafjallajökli
##efs
##atryggingar
frágang
töluverður
undirbúningstímabil
##amis
dæmig
##lingi
Vatnsley
fjölmarga
kaupgjald
mikilvægast
furðulegt
gatnamótum
##tive
##angan
##ympíum
##skólag
Andreas
skapaðist
umboðsmann
##sjó
##stofnunum
tafarlaust
##bæta
##ageiranum
IKEA
##veggja
presta
Ves
legði
Reykhóla
##tuðu
Ströndum
ávaxta
veiting
Sveinbjarnar
steypa
##ukost
##kunna
verðlagningu
stjórnmálaflokkanna
##LAND
brbl
óánægja
Súdan
ábendingu
miðlum
Sérstök
afkomendur
skreyta
Selfyssingar
flýgur
##oðir
tilbúnar
##fitu
framferði
leiðangur
borgaryfirvöld
sjálfseignar
Shaw
##umsókn
vegalengd
202
##stærð
##verska
##samvinnu
Amazon
##stóllinn
óákveð
skít
kórinn
Atvinnuleysi
taugarnar
##steik
##umönnum
Bandaríkjamönnum
Fylkismenn
##sset
ósigur
##eldinu
##réttindum
##59
Sjóðurinn
silung
##jöts
kviknað
##hátíðina
sagna
kennsla
##stjórninni
efnahagssvæðið
aðalstefnda
réttarins
##iness
glæpi
##ners
Bey
fas
menntmn
leikbann
##kennarar
brasilíska
markaðinum
athugavert
Baugi
Stundin
ad
gríðarlegur
Reykjavik
Veðurstofunnar
##sglæp
Tálk
mart
stuttur
sáust
Fæ
ferðirnar
##tökurnar
áföllum
yfirgnæfandi
samfellt
Costco
myndat
veri
úrelt
##tímarit
##ways
##býlinu
löngun
##stöng
útskýrði
##cs
##arkrafa
##FR
##randar
Berlusconi
##verkefnið
tegunda
slitastjórnar
grunar
pottinum
##heiminn
Time
Færeyinga
Sigurvegar
hjúkrunarheimilinu
björgunarsveitarmenn
uppkvaðningu
##pok
##nýta
ríkisútvarpið
samkomulagsins
Búðardal
Hd
Sál
##alögunum
greining
matsmaður
##ery
setning
kirkjur
kyss
ítrekaðar
Doug
##ofnaði
argentí
verðbólgum
Arnars
fegurðar
rakst
appels
##mennska
##stöðvarnar
stórkostleg
##ananna
Seafood
Húnavatnssýslu
moka
evrópskum
stykki
Olga
færðir
Sönd
##kirkjan
labba
Lagerb
Top
##ula
Iðnaðar
Istan
umferðum
Zidane
Kárahnjúkavirkjun
lokar
meðallagi
textal
umræddan
eðlilegu
boðstólum
áhugasöm
klukkustunda
ost
stóðst
##bræður
##leysið
forstöðumanns
Þorláksson
regluverk
lýðræðið
Ester
Velferðar
kaupmáttar
Mass
örva
##sögunni
##díska
íslenzkum
Umsjón
áhugaverða
ólögmæta
landbn
Alsír
Gíslasonar
Digran
##ðs
málaflokka
Kamb
meðförum
látnu
vörnin
Listaháskóla
innanborðs
útlönd
flösku
formlegt
kennsl
##isi
Steini
Sydney
##mana
##GR
KPMG
málsh
Færeyjar
skarið
bog
##slin
fyrningar
##skortur
ohf
fljótir
Norrk
177
sim
framherjann
endum
ráðuneytis
##MX
Skarð
Cross
áhugasamir
gríni
##ques
##ámið
lónið
áhrifarík
málslið
lausnum
flýti
Clippers
##júkrunar
Philipp
Lát
##skv
vökva
Guðfinna
Ragnheiði
##húð
box
starfseminnar
erfiðan
fán
virkum
brugðust
##afrelsi
##þen
félagasamtök
unnusta
afþreyingar
Verkamannaflokksins
##unám
Form
##keppninni
Ingimarsson
undirskrift
almannatryggingar
ósn
Haag
Mona
his
##talin
Austurlöndum
ræðumaður
##eisturunum
allnokk
léti
vonsvik
skrefum
þráðinn
geir
ferskt
samræmist
bratt
##hlutar
bílana
skilvirkni
hlýjast
Cann
##gagn
markaðir
##alánum
nánu
Samp
Ingimundarson
þekktustu
fjármálamörkuðum
hjólið
ótrygg
##úts
##áttinn
sektir
girðingar
##sbot
Didi
Jenný
ísskáp
##cio
##steini
stöðugri
Potter
wh
lögmanna
stöðinni
##okkí
##asvæðinu
##ársins
uppúr
píp
Símanum
Benit
Skýrsla
GAMMA
auðm
##iráð
sígild
430
hælisleitendur
Köt
##inen
Elfar
kenningu
##tímans
##gripa
einasti
éljagangur
beini
glímir
ómæ
Erd
tíðinda
##stefnunni
skattheimtu
ýkja
##eh
innandyra
félagsmönnum
Independ
##stundum
Stewart
lífsna
íþróttablaði
ályktuninni
grundvallaratriðum
##ástæðum
##jöfnuður
ólögmætum
móttökur
saksóknar
upphæðin
##indur
hlæjandi
brotnar
tilfinningum
Franco
Höllu
stjórnarmeiri
giftur
RA
Þreng
frístunda
##söfnun
varnarmann
samverustundir
154
biðjast
Þriðju
167
##undirbú
##shátíð
framleiðslan
Sarkozy
afbrigði
fullyrði
Sigþór
Venju
endurhæfingar
endurupptöku
##amarkaðurinn
umræddra
##ofur
Audi
fý
alll
dagblöð
##æðir
rökrétt
ólíka
##ortivo
##svörum
##ente
hugsanlegum
þjóðfélags
##íóp
stórveld
Mos
beðin
##ráðstafanir
laxveiði
Sven
Markið
##smennirnir
verkstæði
Benít
##brúnar
síðarnefndi
Wi
fjölbýli
beinst
tapast
Eldur
House
##ines
##sstarfi
bankakerfið
nauðsynlegur
sjómönnum
Minning
tafl
heimsóttu
##ýtingu
útrýmingar
stuðlar
erfiðlega
sláandi
Turn
hrist
##litl
Davíðsson
atferli
Taka
##aksóknara
##emja
##itor
Rá
skrokk
##lish
Grill
Frímann
síminn
sögðum
Kveik
samhæf
3000
Stærstu
framkvæmdinni
##hæstu
gráslepp
forgangsraða
skúrir
Sótt
afkvæm
##etið
hljóði
eiturlyfja
Herjólfur
Tómasar
Villar
geymir
Hækkun
sannleikann
framsögur
úttektar
stemningu
Framhald
##björt
Volvo
ranga
ólympíu
augað
héraðsdómur
NASA
##gjum
írska
varin
##lýstur
Þorsteini
andstaða
verzlunar
seljandi
mörkuð
deildabikar
landgræðslu
##erf
velvirðingar
niðurgreið
##kröfum
Kastljósi
vitleysu
##höllin
##ðara
þjóðveg
Bendir
kalk
Bruna
##ningsins
góðæri
Öxna
##æðist
VS
Benítez
Landsnets
##röfum
fyrirferðar
útflutningur
mótfall
kynning
blessunar
óviðkomandi
##skáp
snertingu
aðalskipulagi
Gló
evrusvæðinu
svarenda
ósanng
Deportivo
##sætið
skýtur
verkalýðsfélög
ráðuneytum
utanlands
staðreyndum
Benitez
Topp
sönnu
tank
umhugsunarefni
fötin
grafalvar
netfangið
ríkisstofnana
Button
School
samtíma
undrun
##þingmenn
##fells
##sjúkdómum
misnota
LEI
##ame
kynbóta
ögn
##SSON
hugsanir
reiknuð
sjávarútveginum
væntumþ
samkeppnisstöðu
Drottinn
léttari
Skaftafell
##agreinum
búðir
vissan
Alexandra
almenningssamgöngur
Ótrú
Pálssonar
skaðað
##abb
þyrla
heilbrigðiskerfisins
Hlíð
Len
kortið
mannréttindasáttmála
##mótinu
Eiginmaður
hlát
einkennilegt
Wem
gangur
sprot
Guðbrandur
umhverfisvæn
tvíhliða
matið
dramatí
##etis
skilti
Bjö
dipl
umferðarlagabrot
greiðslukort
Haw
fjárveiting
Alexandersson
Tuttugu
vinnandi
##myndina
MMR
##YND
fallegri
Sad
umbjóð
##skránni
Sili
##istu
strengi
málsástæðum
plötunnar
##unarkerfi
spaða
dauðar
##kna
læknirinn
samfl
##other
Verða
Heimas
setjið
##xb
##tly
eldsneytis
rok
Norrköping
##VA
##amerk
Baltasar
##ej
minnki
##sgögn
Dagskráin
##PP
pólitískur
Karli
tekjuöflun
Sharon
##tain
töluverða
togar
##rísgr
Nettó
fenginni
##áhrifum
leikar
Ólafsfjarðar
endurspeglast
Bræð
Söru
beinan
meðhöndla
nákvæmar
dáið
lögbrot
efh
Evrópus
eignarnám
Fé
mol
tál
skotárás
##maar
beittu
##ÐI
farangur
koltvísýr
teld
aksturinn
salerni
tengslin
Argentína
Hjaltason
peningaþvætti
lyfjam
aðstoðarfor
Schol
aðsk
lífstí
geira
##verðinum
vetni
##hone
sós
óku
Torfa
nefið
Baldurs
lyfið
##zil
leyndarmál
Christopher
umgeng
Hamburg
kreppunni
##sykur
MW
##ssjóð
skilorðsbund
skef
Ragnheiðar
Fabio
Hc
handtaka
heimsálf
Straumur
inntak
##fræðslu
Rebekk
mælingum
takmarkaða
##chat
##ernis
##júpi
Sociedad
finnska
persónuafsl
brotthvarf
ötull
##ytu
Lokeren
##auður
uppdráttar
Komi
stækkunar
Fullyr
Tálkn
Rök
gast
Klepp
bregst
þverpólití
seig
##SE
Propp
sjóður
Landsmót
##birni
Wembley
##apróf
lagaheimild
##post
##astofnunarinnar
##esh
örorkulífeyris
hæðir
lögmann
sjúkdómur
##votta
framlögðum
lögfesta
##isskrá
trúnað
norðvestan
Vaðlaheiðarg
##eifur
Skuldir
Krafan
markverði
Halli
Hrafnsson
fuglar
neikvæ
fötlun
framdi
bótakröfu
blásið
##vaf
Brún
sameignar
Iðnó
Marteinsson
nautak
Löngu
Frímanns
sparifjár
##iðnað
ljúft
náttúran
myg
Gea
Vilhjálmsdóttir
##kórinn
Ætlar
karlmönnum
##vekjandi
##smálaráðherra
töfra
æðsta
hollensku
##stýringu
kollega
kraftaverk
bey
gefum
##alin
samningana
tröpp
meðvitundar
##anyol
##FL
Delo
fotboltinet
Frans
bættust
þyngra
Múla
##68
passaði
þinglýsingar
gosið
neikvæða
nauðsynlegum
munað
kveðjur
saltfisk
##arkeppninni
námskeiðinu
göngunum
stemma
Brug
##argerðar
Sporting
##NG
ágætur
##alegra
Útgerðar
vá
hliðum
##æli
##shreppi
Ölfusi
Stefna
byggst
úrslitaleikinn
Molde
##falla
fullnaðar
hittist
##skipi
fordómum
geggj
hljóðs
væntanlegur
##immy
stífl
kauptilboð
fullveldi
##akad
##æktar
##arathöfn
Alkmaar
##utu
flugmenn
sjaldgæft
##settar
kynferðislegu
kepptu
hátækni
TH
áþreif
##gram
Hofs
Espanyol
dýpra
Tryggingamið
svíkja
veikst
markaðsráðandi
velkomin
heilbrrh
skiptastjóri
Sha
##cius
Línu
##bróður
##landinu
Synir
##ískri
aðhyll
íþróttafrétt
Nova
##ustjóri
flúði
sleit
lýðheilsu
statt
heimsstyrjöldinni
lotu
þjóðarbúið
fatnað
Ani
##emd
152
Ástæður
vesen
íra
gistin
##kin
peningarnir
forsvarsmanna
leikhléi
##höldum
Svarf
einkaleyfi
Skv
úrskurðarnefndar
##vey
Barð
Airbus
Svanur
##lýsingin
Cup
fáa
tengsla
Bæjarstjórn
Wright
##enheim
kunningja
hælisleitenda
jörðum
rúmir
fagnandi
teflt
##umsjón
##ope
sneru
snjóflóð
##þíóp
##gaard
That
kommúnist
Kæra
##graf
dugað
pönnuk
Fjárhag
rithöfund
Skólinn
stjórnmálanna
stofni
stýrivexti
Aur
ætlaðar
almennur
árásirnar
ættar
uppboði
Átti
##asviði
##iðurinn
stofninn
gjaldmiðlum
sf
Hä
Hay
Pors
##dvöl
þakið
##sstaði
Kerry
bæja
Breyting
borgir
Deloitte
nektar
tu
klæddur
Fundur
vændum
Patri
173
læknisvott
öng
brosa
##ónía
matsmanns
##lines
Bræður
VIÐ
Start
framangreindra
tímabundna
undirstaða
Sambandi
##shorn
Mancini
Guttorm
frönskum
hægar
viðskiptak
tekjustofna
KEA
Pau
gangstétt
ríkisskulda
sanngjörn
kurtei
heimsóknum
spítalann
Pavel
starfsumhverfi
Þúfu
##mynda
Parma
##ikkön
##ugri
brútt
fjármálaráðuneytið
gætti
dregnar
heimsfræ
Didier
ras
##ahreyf
kok
Álftanesi
kvikmyndin
Seltjarnarnes
sparka
tímabundin
##sferðir
aðhlynningar
##urunum
mannvirkja
trans
##vörun
##stæðingar
##eymslu
skör
##veitur
andaðist
##markað
##vísindum
Malasíu
sluppu
varnarmálaráðherra
bundnir
forystunni
##iser
liðsfélaga
kenndur
Gústav
köst
ljósmyndum
viðskiptafræði
Persónuvernd
##argæslum
##glugg
smíðað
REI
##hof
tilnefndir
huganum
andlegu
Camb
Thier
##vöxtun
##leiðin
gleðjast
kím
Snæbjörn
##görðum
framboðslista
##gráðu
Arth
sakaðir
##finnsson
fiskveiðar
meiðslin
hugleik
lesenda
teljandi
##afló
Árnadóttur
nægt
þón
##hem
hækkunum
##jafir
Ji
mág
##tækið
verkamenn
repúblikana
skinn
##atöl
pe
aðkoma
##erli
nýaf
áttatíu
Mata
##fect
Tev
##blad
útsend
athöfnina
##hugsandi
Hérna
flóttamönnum
dót
##semdir
vanskilum
prestar
Pólverjar
Dregið
##ónleika
aldamótin
hraðaupphlaup
Fons
##vild
Hljó
##greinum
##rænir
sjónir
##stone
##lánas
Spurning
nautgrip
hjartanu
ABC
##amennska
mikilvægir
endurheimt
##svörn
ábyrgðina
takmarkaður
yfirlögregluþjónn
laut
stærðum
##fyrirtækinu
geymd
Blind
sjóðir
##settir
205
##fangelsi
andsvari
líðandi
Laden
##iri
Jökulsá
##agangur
skilnað
æðri
tæpast
háan
jákvæðu
Life
útlag
Flokkur
eðlilegur
Magnúsdóttur
strendur
lítrar
krefja
##hest
Ernu
ákæruvaldið
Reynis
##ersfield
Darren
Mozart
208
geisladisk
Beg
##eglu
##LEIKUR
tækið
sendiráðið
Gabriel
##lam
greiðast
Emer
sakarg
Feder
góm
bannið
Freder
Blik
aðhalds
##ppi
áhlaup
andvíg
520
##VÍ
forðum
utanríkisráðuneytið
Hitler
Adams
Ákvörð
Ungverjaland
öflun
vesturhluta
skynja
rannsóknast
vild
Þennan
##skaup
##bókar
þýskum
##skóga
##upplýsingar
##nileg
##eifa
##engu
landsliða
venjulegu
nytja
Corp
Kennedy
ástæðulaust
Daða
þorskur
konungs
slita
skýrslug
nýstár
kröfurnar
sameinað
upptal
páfi
##ardóttir
##skurður
Hvergi
athuganir
auglýsingast
heppni
ferðamála
evrópsku
Eigum
Gard
##taði
íbúarnir
þjónustumið
þrengja
millilið
leggist
yfirheyrslur
Sin
##afh
##kennt
##blóm
seink
Leon
##vinnslan
Tour
íslenzkra
fönd
kjörið
Porsche
Betis
##greinda
sky
alt
skynsamleg
löggjafans
náinni
Fylgst
lip
##tish
1911
let
sömdu
endurtekið
felldar
Dean
##kalla
Ásvöllum
fyrrnefndu
##LAG
##uff
misjaf
Skrið
Varm
Reykvíkinga
Tals
##skon
klárast
Pierre
samningarnir
nægur
vísbending
laxinn
Villarreal
##línum
##verðlaunanna
Ti
Leikið
##skarð
Flótt
fiskimið
fréttamannafundi
öflugum
ströndina
Björgunarsveitir
leiðbeinandi
Aðilar
yfirferð
heimilar
Kirk
fimmt
Fjölbrautaskóla
frægt
hittum
grú
íslandi
##eving
vatnsafl
innif
##messa
Oftast
augnab
þáv
ríkisrek
Dætur
Low
##gjast
hlutdeildar
heimsmark
Cart
hrista
söfnunar
farist
##kuldbind
jarðs
réttlát
##slögreglustjóri
GKG
##buxum
Vinnumálastofnunar
völdu
Norðuráls
##emmi
fjölyrða
##dómurinn
viðgerðar
olíuverð
Landhelgisgæslan
Bolungarvíkur
SMS
##skýjað
Laxár
spjöll
sannar
Stor
tekizt
skírskotun
Lón
Huddersfield
batna
##seig
dagblað
launþeg
frumkvæðið
óá
##skyldum
Oxford
útist
leiðbeina
##ikkönen
##skjá
Málskostnaður
##rekum
framkoma
##argjöld
##spæ
utanríkismálanefndar
Gildir
ríkissjónvarp
félagarnir
dalnum
Jimmy
tækifærum
áhuginn
Jósep
vig
harla
Héðins
hung
hvetjum
hámarkshraði
##heiti
vergri
bygginguna
##går
eiginmanns
einkarétt
##málastofnun
Alma
ferðaþjónustunni
vinnumarkaðinn
##ANN
kæmust
Allardy
fallnar
björgun
reikningar
gaumgæf
440
##lic
##asýning
lost
##amær
Skaf
Eðvarð
Almenningur
Sighvatur
Fátt
##ryð
[...]
